#version: 0.2
t h
th e</w>
i n
a n
e d</w>
e r
r e
a r
t i
o n
e r</w>
e n
an d</w>
o f</w>
o r
o n</w>
in g</w>
i n</w>
o u
t o</w>
a l
a s</w>
i t
s t
a t
e s</w>
r o
h i
a c
h e</w>
a l</w>
s i
a t</w>
a n</w>
e l
r i
o r</w>
s t</w>
u n
e c
o m
w as</w>
u r
i l
a m
e n</w>
l i
d i
e a
ti on</w>
l y</w>
@ -
@- @</w>
T he</w>
o l
i c
l a
l e</w>
e m
i s</w>
e s
r a
h a
' s</w>
th at</w>
it h</w>
f or</w>
l o
i s
v e</w>
en t</w>
b y</w>
i r
w ith</w>
e t
e v
c h</w>
c h
s u
c on
en t
er e</w>
a g
p o
a s
c e</w>
er s</w>
1 9
a d
b e
hi s</w>
p ro
b u
f or
ou n
g h
d e
o v
c om
w h
t h</w>
o w
un k
s e</w>
ro m</w>
th e
unk ></w>
< unk></w>
ti on
e x
f rom</w>
t ed</w>
a b
o p
s p
i t</w>
v i
a p
a tion</w>
2 0
t er</w>
s h
t s</w>
w hi
a y</w>
n o
w ere</w>
e ar
d s</w>
th er</w>
i m
o o
r u
d u
q u
at e</w>
e p
d ed</w>
l e
p re
t er
p er
d ing</w>
f f
at ed</w>
l u
s ed</w>
d e</w>
it y</w>
l d</w>
in g
ha d</w>
u l
re c
am e</w>
c i
m a
m o
I n</w>
i r</w>
whi ch</w>
t a
p l
s e
on e</w>
n e
b er</w>
al l</w>
ar e</w>
b e</w>
w e
r an
p ar
g e</w>
al ly</w>
ou t</w>
S t
g h</w>
g u
s o</w>
a u
tion s</w>
v er
f ir
l ea
gh t</w>
f i
u m
it s</w>
in c
ti m
on g</w>
ar y</w>
s on</w>
s c
m an
w or
a r</w>
at t
p or
si on</w>
k e</w>
r ou
e t</w>
in e</w>
bu t</w>
t ur
d er</w>
o c
b o
no t</w>
T h
ou ld</w>
i es</w>
l ed</w>
s er
20 0
f ter</w>
d er
h er</w>
t w
ar d</w>
C h
t o
fir st</w>
ow n</w>
ti c
the ir</w>
or e</w>
e st
n i
al so</w>
p la
p u
con t
m ent</w>
0 0</w>
ou r
al i
oun d</w>
ag e</w>
s hi
s a
e st</w>
du c
f e
g i
ac k</w>
t ing</w>
e l</w>
k s</w>
ha ve</w>
om e</w>
v ed</w>
@ .
@. @</w>
tw o</w>
es s</w>
wh o</w>
lo w
b ec
en ce</w>
i g
t e</w>
be en</w>
h as</w>
s ec
o ther</w>
r y</w>
ea r</w>
ent s</w>
st or
at er</w>
@ ,
@, @</w>
20 1
m u
ov er
ti ve</w>
th is</w>
ur ing</w>
c o
s s</w>
A l
ou r</w>
el y</w>
s h</w>
m il
i d
k ing</w>
on s</w>
ou s</w>
H e</w>
re n
em ber</w>
n ed</w>
p ri
tim e</w>
I n
i d</w>
for m
p e
u s
f in
an t</w>
the y</w>
com m
m in
u s</w>
1 8
l and</w>
inc lu
a y
el l</w>
t y</w>
si g
e i
a fter</w>
M ar
a v
re e</w>
ac e</w>
m e
tion al</w>
t ra
ab le</w>
w ould</w>
h o
r it
a in
f il
ri c
in to</w>
ov er</w>
o g
t en
w ay</w>
f t</w>
k ed</w>
I t</w>
c a
re s</w>
w i
at es</w>
m an</w>
c ri
it e</w>
an ce</w>
ev er</w>
it ed</w>
m ore</w>
pre s
r e</w>
ch ar
in ter
i c</w>
pla y
u p</w>
sp ec
l es</w>
ur e</w>
ti c</w>
an s</w>
er al</w>
A u
e w</w>
m er
es e</w>
A n
ad e</w>
o ff
l an
st r
m ar
ou gh</w>
p a
al s</w>
e y</w>
b et
R o
mo st</w>
ing s</w>
on d</w>
ic e</w>
d ec
l ar
wh en</w>
A r
t u
e w
c es</w>
hi m</w>
s he</w>
s el
r ac
n ing</w>
shi p</w>
s es</w>
f u
t e
on ly</w>
b li
g en
c re
p s</w>
n a
in ed</w>
c ol
s o
v ing</w>
d uring</w>
on g
c ent
p an
p p
th an</w>
b er
ear s</w>
s ea
st ru
s ev
we en</w>
er n</w>
ac h
J o
t on</w>
19 9
a d</w>
ti es</w>
s y
t or
e d
lo c
p i
ab out</w>
ol d</w>
s ti
whi le</w>
g ame</w>
U n
m on
for e</w>
ac h</w>
ap p
E n
bet ween</w>
i st
in s</w>
al l
l ater</w>
c c
ne w</w>
th ree</w>
at ing</w>
th rou
c la
u m</w>
g ra
d o
n um
p h
re lea
i al</w>
pro duc
f ol
c oun
ar i
g re
d es
en d</w>
h ea
oo k</w>
B ri
a re
v es</w>
s ur
A mer
Amer ic
il l</w>
f f</w>
s ing</w>
g o
wh ere</w>
f a
a tions</w>
d ay</w>
ic al</w>
w rit
O n</w>
u sed</w>
be g
an d
0 00</w>
n or
ev el
b le</w>
th ough</w>
t ri
su b
m ade</w>
C om
e g
em ent</w>
h el
t en</w>
en ti
w ar
rec or
fil m</w>
k n
b as
m at
an t
i a</w>
es s
r ed</w>
sea son</w>
m ov
oo d</w>
bu il
si c</w>
su ch</w>
stru c
an g
t r
ou th</w>
P ar
em p
l ing</w>
be fore</w>
d y</w>
L i
am es</w>
v er</w>
t ro
W h
ea m</w>
is o
c hi
N or
s ome</w>
y ears</w>
e b
y ear</w>
o b
di s
c u
il y</w>
tur e</w>
T his</w>
y ing</w>
N ew</w>
en g
ro w
al bu
c an</w>
a m</w>
ec t</w>
pu bli
f e</w>
st e
C on
c ed</w>
the m</w>
ow ever</w>
w ell</w>
th en</w>
fol low
po in
si de</w>
c ap
wor k</w>
ec ted</w>
m p
man y</w>
be ing</w>
ar ri
lo w</w>
ain st</w>
throu gh</w>
ep iso
f ic
m is
an n
ur y</w>
sec ond</w>
en d
wi th
ag ainst</w>
po si
in v
t ers</w>
st ar
g r
char ac
ear ly</w>
er ed</w>
B o
m s</w>
m y</w>
c al
J u
albu m</w>
par t</w>
si d
s ong</w>
in ce</w>
bec ame</w>
sh o
ti v
s si
1 0</w>
b el
inclu ding</w>
or s</w>
s ing
d re
num ber</w>
t or</w>
st u
n o</w>
f ac
th ere</w>
Un ited</w>
f er
st s</w>
stor y</w>
ac c
a in</w>
s ch
bo th</w>
ser ies</w>
sh ed</w>
au se</w>
A fter</w>
a ir
ay s</w>
di c
con si
l s</w>
l ine</w>
l in
19 8
con c
la r</w>
j u
Jo h
al e</w>
d evel
i l</w>
li on</w>
p as
a k
su p
n e</w>
19 4
w ard</w>
ac k
re as
i z
cont in
s m
f our</w>
di rec
s k
En g
su cc
W or
un der</w>
su l
b or
t eam</w>
per i
por t</w>
episo de</w>
em b
l l</w>
or t</w>
an y</w>
ser v
j o
sa id</w>
or ig
b ri
in f
m i
re ma
po li
u t
di ff
rec ei
over n
a st
o se</w>
sev eral</w>
w in
W il
Americ an</w>
et s</w>
y p
kn own</w>
D i
ti sh</w>
de sig
b i
n am
di d</w>
o re
devel op
b ro
G er
c ould</w>
t re
contin u
o d</w>
tic al</w>
19 7
t le</w>
t ran
hi gh
C ol
le y</w>
n er</w>
t ly</w>
19 6
r on
re tur
beg an</w>
sel f</w>
er y</w>
ti l</w>
so ci
or y</w>
S u
is h</w>
op le</w>
s ol
is h
fe at
li ke</w>
2 0</w>
com p
relea sed</w>
n s</w>
A s</w>
c lo
G re
m e</w>
is ed</w>
ep t
at h</w>
des cri
C ar
un til</w>
M o
cal led</w>
t el
orig in
S h
O c
b ack</w>
d es</w>
ver s
un i
ec tion</w>
d o</w>
0 s</w>
in ing</w>
f am
e k</w>
d ge</w>
op er
g rou
off ic
ta in</w>
fu l</w>
b ed</w>
g g
un e</w>
l er</w>
H i
gu e</w>
ou se</w>
der ed</w>
st ed</w>
di st
v o
oo l</w>
mil lion</w>
o u</w>
Bri tish</w>
u se</w>
po w
pl ac
th ese</w>
ou s
e f
d el
o ff</w>
s on
in i
P o
b re
o m</w>
se t</w>
ol og
3 0</w>
el d</w>
g a
f ound</w>
N a
vi ew
mu sic</w>
S he</w>
c ur
an c
di tion</w>
e ach</w>
M a
no w</w>
S ept
Sept ember</w>
c ha
5 0</w>
Au gu
de p
a st</w>
re qu
t ook</w>
St ates</w>
s ame</w>
st ate</w>
pe ople</w>
st er</w>
si ons</w>
R i
d on</w>
an e</w>
bec ause</w>
Au str
1 7
o s</w>
c am
A t</w>
si ve</w>
P ro
e y
or g
re sul
1 2</w>
app ear
Wor ld</w>
a w
ar ound</w>
ou th
1 5</w>
b l
b att
F ran
m ay</w>
for m</w>
g overn
l y
ou t
form ed</w>
e ff
d ra
com pl
th ir
follow ing</w>
Austr ali
N ov
u p
ent ed</w>
l ong</w>
H owever</w>
c ity</w>
ar ds</w>
m et
re s
d own</w>
Augu st</w>
na tional</w>
ste m</w>
v en
p er</w>
com pan
recei ved</w>
la tion</w>
U ni
Oc to
Octo ber</w>
li fe</w>
di vi
al ong</w>
tic s</w>
an u
A d
Joh n</w>
ad v
sp on
c or
B u
M u
e e
D ec
th er
M ay</w>
ex p
di sc
ex t</w>
I I</w>
p le</w>
Y or
a il
pro vi
pl ace</w>
fi ve</w>
k m</w>
are a</w>
in ten
cent ury</w>
ap pro
Th ey</w>
at ely</w>
c ar
ma j
k il
en ed</w>
W ar</w>
i an</w>
v en</w>
li c
cont ro
b and</w>
J une</w>
m en</w>
hi gh</w>
si on
re g
ver y</w>
f ul
fi ed</w>
compl et
un der
Ch ri
Ju ly</w>
d et
g e
il ity</w>
d en</w>
19 5
de f
r in
sho w</w>
Nov ember</w>
c ra
lo o
a z
S p
c lu
v ari
we st</w>
c au
st ri
posi tion</w>
ea d</w>
r un
19 3
C an
wh at</w>
or ding</w>
s ince</w>
d em
po pu
E u
sing le</w>
g ed</w>
se qu
in st
A pri
Apri l</w>
m ed</w>
en ded</w>
1 1</w>
am s</w>
R e
l it
li sh</w>
dec i
ea st</w>
U S</w>
v il
G u
. .
h al
ent ly</w>
o t
Mar ch</w>
me di
w ill</w>
M c
po sed</w>
s en
C oun
pl an
d ers</w>
ro ss</w>
l ess</w>
Yor k</w>
ev en</w>
re la
P re
lar ge</w>
om e
th ing</w>
du e</w>
ou ght</w>
f un
e al
In di
w ar</w>
k en</w>
G e
t ow
H ar
ic k
ec h
li m
c y</w>
le ft</w>
D uring</w>
ch es</w>
i f</w>
f ri
diff er
il l
play ed</w>
Dec ember</w>
re spon
as s
y s</w>
en s</w>
B ar
1 4</w>
si s</w>
1 8</w>
F or
r ing</w>
mov ed</w>
mu ch</w>
inc reas
shi ps</w>
ec ts</w>
an other</w>
I s
J anu
Janu ary</w>
2 5</w>
inclu ded</w>
grou p</w>
ro te</w>
sy stem</w>
c er
em ents</w>
bas ed</w>
ar ly</w>
fin al</w>
in a</w>
n ame</w>
.. .</w>
le g
w rote</w>
1 6</w>
Ch ar
al es</w>
M ic
ig n</w>
k er</w>
ir ed</w>
th s</w>
y ed</w>
h er
thir d</w>
charac ter</w>
w on</w>
b all</w>
Q u
li ght</w>
Wh en</w>
Nor th</w>
J ap
1 3</w>
is e</w>
lar g
C o
z ed</w>
c ul
tim es</w>
ev i
v ic
por ted</w>
govern ment</w>
gen er
di o</w>
ro p
de o</w>
b ur
S ch
nam ed</w>
pre vi
nor th
po s
fam ily</w>
spec ies</w>
c l
pla y</w>
o f
st a
ac t</w>
L a
ju st</w>
descri bed</w>
c our
u e</w>
om in
for man
h ome</w>
e qu
c as
m ents</w>
ch an
is su
ic k</w>
M on
l ate</w>
am pi
fi eld</w>
si c
d am
hea d</w>
h ar
N o
S outh</w>
buil t</w>
bel i
la st</w>
wor ld</w>
C hi
vi ew</w>
por t
or ed</w>
L e
org an
A c
vers ity</w>
ne y</w>
n ear</w>
att emp
es p
D a
gr ound</w>
si x</w>
f ur
k es</w>
g ames</w>
G en
t yp
ach ed</w>
ag es</w>
is m</w>
w ea
z e</w>
Wil li
em s</w>
pro t
ri bu
en ing</w>
t ry</w>
eb ru
st ern</w>
th ose</w>
en n
p hi
C or
ma ke</w>
1 7</w>
recor d</w>
f l
ch ed</w>
re v
ebru ary</w>
F ebruary</w>
w ater</w>
et y</w>
' t</w>
ag ed</w>
s ome
ti ci
ma in</w>
p ur
el l
c an
sc en
n ext</w>
m er</w>
sti ll</w>
gh ts</w>
d ays</w>
ca re
at ure</w>
sti tu
e f</w>
hel d</w>
th ers</w>
per forman
S .</w>
d ro
j ect</w>
d ri
c k</w>
ser ved</w>
nor th</w>
as h
be st</w>
B y</w>
ren ch</w>
re gi
origin al</w>
con struc
1 6
ent u
P er
with in</w>
al low
plac ed</w>
en ces</w>
in d</w>
m emb
war ds</w>
ir e</w>
B e
r al</w>
de ath</w>
sm all</w>
M an
tran s
t own</w>
relea se</w>
v al
al though</w>
th em
maj or</w>
s outh
201 0</w>
al ity</w>
Na tional</w>
r am
vi deo</w>
H is</w>
F rench</w>
re ad
at s</w>
tiv ely</w>
Ger man</w>
est ab
p ed</w>
h y
mat ch</w>
ous ly</w>
ag ain</w>
ber t</w>
pro c
ini ti
t al</w>
f el
S er
it al</w>
ro le</w>
w om
continu ed</w>
form er</w>
i e</w>
1 00</w>
ver sion</w>
M in
Th ere</w>
for d</w>
ep t</w>
pow er</w>
b an
si mil
au th
sid ent</w>
g et</w>
st an
ar ti
h owever</w>
memb ers</w>
m ag
it ary</w>
h um
200 8</w>
ro s
2 1</w>
y al</w>
tr ack</w>
in es</w>
2 4</w>
200 9</w>
h or
y ou</w>
succ ess
ri ght</w>
to p</w>
a ff
ta ke</w>
ong s</w>
E l
of ten</w>
E d
hal f</w>
ex c
c ame</w>
play er</w>
201 1</w>
ch ang
s outh</w>
sh ow
produc tion</w>
ci al</w>
L ea
H o
u al</w>
ho w</w>
W hi
publi c</w>
co t
4 0</w>
ex ten
w in</w>
b ook</w>
w at
1 9</w>
il i
on y</w>
po ssi
an ts</w>
L on
Eng land</w>
ra tion</w>
2 2</w>
h ouse</w>
us ing</w>
ur ed</w>
f oo
R ec
In ter
consi dered</w>
S e
poin t</w>
stor m</w>
u res</w>
s et
el s</w>
ne w
y le</w>
di ed</w>
s ure</w>
sig ned</w>
sch ool</w>
200 7</w>
est ed</w>
l et
chi l
care er</w>
fur ther</w>
ing ton</w>
ha ving</w>
O ne</w>
Ge or
v is
r a</w>
V i
h ol
at or</w>
ish ed</w>
O r
olog y</w>
re li
C ity</w>
w e</w>
cra ft</w>
i m</w>
di sp
ti n</w>
g es</w>
de st
fe w</w>
w ent</w>
d ow
s w
loc al</w>
d en
el ec
with out</w>
f ron
an im
hi story</w>
Al though</w>
par tic
or der</w>
cla im
vi sion</w>
differ ent</w>
writ ten</w>
o p</w>
201 2</w>
tor s</w>
bec ome</w>
s ha
E x
c o</w>
sup port</w>
Eng lish</w>
i ght</w>
A cc
inf lu
peri od</w>
oun d
our s</w>
re fer
Lon don</w>
A f
an a</w>
ur ch</w>
D e
am ong</w>
R a
inv ol
il ed</w>
su gg
estab li
C ent
An g
c y
U .
ac tion</w>
L o
T im
st re
b ar
row n</w>
ar m
on es</w>
ro ad</w>
ep ar
1 0
ann oun
F or</w>
im p
B att
ent al</w>
re pres
2 3</w>
P ri
g o</w>
S ta
t es</w>
compan y</w>
2 7</w>
gi ven</w>
l ev
M il
s qu
su m
lan ds</w>
b a
oc k</w>
buil ding</w>
r on</w>
t ru
op s</w>
ga ve</w>
er ing</w>
per son
K ing</w>
publi shed</w>
f re
c ou
Uni versity</w>
fi c</w>
ha m</w>
ei ght</w>
19 0
att ack</w>
k et</w>
dre n</w>
Whi le</w>
chan ge</w>
i st</w>
t al
ta ined</w>
ul t</w>
S y
og ra
a k</w>
a ir</w>
retur ned</w>
f ace</w>
U. S.</w>
fa ther</w>
produc ed</w>
ar t</w>
2 8</w>
ex am
a tive</w>
hi m
Al l</w>
W est</w>
we e
on om
ev ed</w>
ma in
p ra
D u
st ated</w>
m or
M e
L u
ca st</w>
i de
de fe
evi sion</w>
lea d</w>
S o
c op
2 6</w>
com b
t rac
y oun
Ri ver</w>
200 6</w>
lo st</w>
for ce</w>
a th
ni ght</w>
s ent</w>
R ic
x im
A t
P hi
over ed</w>
p at
H er
B l
fir e</w>
bo dy</w>
inclu de</w>
st at
w ays</w>
pp ed</w>
s ci
ma king</w>
recor ded</w>
1 5
ur ric
hea v
S cot
di tional</w>
en ding</w>
bo ard</w>
simil ar</w>
B ra
ran ge</w>
for ces</w>
st ing</w>
b ir
ag re
R ep
s ite</w>
A s
e u
b r
m it
F in
ic i
b s</w>
gh out</w>
S ec
coun try</w>
n ever</w>
a way</w>
Acc ording</w>
tor y</w>
g un
St re
C am
su ff
performan ce</w>
c el
ni fic
sh ort</w>
or ity</w>
p ol
ampi on
mo der
oun ded</w>
lo t</w>
si an</w>
air craft</w>
oun ds</w>
serv ice</w>
Th ese</w>
duc ed</w>
ab ly</w>
him self</w>
201 3</w>
m ul
m en
mil itary</w>
sc ri
Australi a</w>
att ac
u bli
ru n</w>
s it
f ore
si a</w>
d in
qu ar
s ongs</w>
f es
develop ment</w>
H en
n ov
clu b</w>
n ess</w>
F i
dest ro
tro p
re view
2 9</w>
to tal</w>
develop ed</w>
est s</w>
in tro
all s</w>
im port
en ds</w>
n ec
a ti
g er</w>
B er
r ace</w>
ab o
do m</w>
re st</w>
s ons</w>
h ear
St ate</w>
o l</w>
hi stor
c arri
an ese</w>
Gen eral</w>
contro l</w>
gh ter</w>
chil dren</w>
ar s</w>
di es</w>
P et
J ames</w>
s in
rema ined</w>
p ul
f av
la y
charac ters</w>
Ar my</w>
R om
we ek</w>
t em
ti tle</w>
ren t</w>
mon ths</w>
T w
d ent</w>
18 9
as si
resul t</w>
ic s</w>
col l
n a</w>
loc ated</w>
c ent</w>
st on</w>
a ver
com e</w>
l l
Willi am</w>
t ation</w>
oc k
v ol
h ard</w>
ti s
R us
ta ken</w>
cam pa
at ur
conc er
A m
sig nific
urric ane</w>
previ ous</w>
Lea gue</w>
h ou
M i
d a</w>
sic al</w>
pro mo
or i
t a</w>
v ir
t an
u tion</w>
l at
Da vi
trop ical</w>
fel t</w>
cla ss</w>
ac ross</w>
writ ing</w>
se en</w>
i ally</w>
un ity</w>
re ported</w>
c ir
m as
dep end
ph y</w>
ep tion</w>
Th e
6 0</w>
entu ally</w>
g ood</w>
s po
appear ed</w>
ab ility</w>
announ ced</w>
Americ a</w>
mar ri
no ted</w>
B ro
M or
Di vision</w>
u te</w>
tra v
le ge</w>
c at
F l
re ached</w>
re st
w an
p ea
B i
u su
ex peri
cre ated</w>
wor ks</w>
Coun ty</w>
are as</w>
c k
ear ch</w>
m ember</w>
tel evision</w>
sp e
t ment</w>
poli tical</w>
Jap anese</w>
200 5</w>
retur n</w>
li es</w>
se e</w>
ad a</w>
k e
A b
per formed</w>
bri dge</w>
N av
v al</w>
C ap
follow ed</w>
f le
d oc
mis sion</w>
to o</w>
ne l</w>
H ol
d ate</w>
organ iz
ar k</w>
desig n</w>
h on
gre at</w>
sh ould</w>
N ew
in e
R u
ro w</w>
qu e</w>
spec i
ev er
st yle</w>
play ers</w>
it ing</w>
201 4</w>
m m</w>
t om
Geor ge</w>
Stre et</w>
ap poin
sa w</w>
1 3
W ith</w>
st age</w>
Par k</w>
o s
g ran
pe ti
t ech
ful l</w>
min ist
B C</w>
li ed</w>
kil led</w>
poin ts</w>
sev en</w>
ti ce</w>
m ing</w>
f our
vari ous</w>
e an</w>
S m
h om
throu ghout</w>
f la
wi de</w>
pu t</w>
to ge
w ood</w>
toge ther</w>
form ation</w>
pro b
scri p
f em
lit tle</w>
bec om
th re
o t</w>
C re
establi shed</w>
mil es</w>
g in
Mic ha
li ve</w>
p rin
lev el</w>
b om
id d
t led</w>
d ings</w>
com par
c ru
la y</w>
o d
ear li
en ced</w>
B ur
im pro
star ted</w>
t ball</w>
h ind</w>
Australi an</w>
v oc
ul arly</w>
m i</w>
succ ess</w>
S i
lin es</w>
n al</w>
W est
Th om
u r</w>
th ought</w>
Ro ad</w>
rou te</w>
H am
str ong</w>
wom en</w>
v e
com man
s es
est er</w>
comm on</w>
h an
cau sed</w>
w a
batt le</w>
man ag
e ve</w>
ad dition</w>
feat ures</w>
r y
Af ric
ev entually</w>
deci ded</w>
a f
b oo
cas e</w>
bor n</w>
on ce</w>
fron t</w>
H u
W al
s old</w>
in du
em y</w>
S qu
construc tion</w>
fe et</w>
op ened</w>
ad ded</w>
p it
s our
n on</w>
wh ite</w>
oc cu
success ful</w>
ta ins</w>
ac i
b il
re spec
l ong
in ning</w>
pres ent</w>
m em
M ad
ampion ship</w>
at ors</w>
S ha
F ol
Davi d</w>
inst ead</w>
low ing</w>
la w</w>
rou ght</w>
Eu ro
ag o</w>
popu lar</w>
a i
gen eral</w>
M al
ti al</w>
h e
r o</w>
complet ed</w>
possi ble</w>
play ing</w>
et ing</w>
es tim
m oun
ent h</w>
st ation</w>
wor ked</w>
ec u
18 8
sec tion</w>
B el
H ouse</w>
ta in
ful ly</w>
popu lation</w>
di an</w>
do es</w>
id enti
h un
ing dom</w>
c lea
ut es</w>
import ant</w>
200 4</w>
o li
Ro yal</w>
T ra
sur vi
ra ther</w>
i gh
E ast</w>
b al
o thers</w>
campa ign</w>
ni a</w>
mat er
be hind</w>
divi du
t our</w>
gun s</w>
for ced</w>
li gh
Micha el</w>
lea ding</w>
n omin
20 0</w>
vi a</w>
en sive</w>
E ar
si ble</w>
fi f
201 5</w>
up on</w>
Mu sic</w>
sc re
Fran ce</w>
ei ther</w>
p e</w>
clo se</w>
d ou
w id
par ty</w>
gu n</w>
sub sequ
clea r</w>
diff ic
sion al</w>
ic es</w>
G i
er a</w>
ac y</w>
rela tion
sp or
et h</w>
tion ed</w>
s epar
heav y</w>
as soci
wor king</w>
jo ined</w>
R ou
wee ks</w>
tici p
p rac
scen e</w>
ph y
3 1</w>
origin ally</w>
rop e</w>
sc ored</w>
lo y
C ha
mi x
ol e</w>
B rit
ar ch
or d</w>
al most</w>
ar gu
W ash
tu res</w>
Hen ry</w>
e en</w>
bl ack</w>
dam age</w>
ec h</w>
ali st</w>
1 4
p ain
allow ed</w>
p il
ev ery</w>
re t
pas sed</w>
li st</w>
la un
mo ve</w>
read y</w>
provi ded</w>
b ers</w>
ef for
T o</w>
c le</w>
four th</w>
dra w
mo ther</w>
ev ent</w>
Y ou</w>
youn g</w>
F il
B est</w>
av ail
wan ted</w>
low er</w>
g y</w>
ic ally</w>
di tions</w>
F ir
cont rac
b rought</w>
o w</w>
re l
t ou
oc cur
olog ical</w>
V ir
ec onom
in dividu
d ents</w>
5 00</w>
d ev
feat ured</w>
st ra
lea st</w>
S ome</w>
pi ec
vil la
wi fe</w>
c ros
T o
aver age</w>
7 0</w>
equ i
tow ards</w>
D esp
an g</w>
bu sin
li k
rec og
hel p</w>
C la
ch ing</w>
ci l</w>
cri tics</w>
run s</w>
Wash ington</w>
tur ed</w>
n u
ex ist
St u
ol s</w>
A ir</w>
Ro bert</w>
so on</w>
az ine</w>
por ts</w>
tur al</w>
regi on</w>
off ice</w>
form s</w>
f oc
desig ned</w>
exam ple</w>
moder n</w>
G ra
A n</w>
claim ed</w>
d ru
in j
t ar
Euro pe
n ers</w>
hi t</w>
enti al</w>
t able</w>
ec tive</w>
tro ops</w>
O n
an ces</w>
fin ished</w>
Eu rope</w>
sh or
M er
Batt le</w>
H un
ar my</w>
ac hi
ad ron</w>
we stern</w>
Desp ite</w>
le t</w>
200 3</w>
es ti
r .</w>
P al
Sch ool</w>
Joh n
s la
gener ally</w>
ach ing</w>
8 0</w>
star t</w>
s ses</w>
e m</w>
O ther</w>
C our
conc lu
b it
bro ad
se a</w>
m et</w>
i or</w>
u lar</w>
ep h
18 6
du ce</w>
wh e
mp h</w>
ea stern</w>
st and
sho t</w>
C ali
ev ents</w>
beli eved</w>
in k</w>
Chri sti
g an</w>
op en</w>
b ack
T V</w>
Fol lowing</w>
G ar
ain ed</w>
k ers</w>
par ts</w>
b ility</w>
ov i
W in
l eng
ri es</w>
p en
p ho
pre ss</w>
T ur
vic tory</w>
re placed</w>
te e</w>
Jap an</w>
fic ation</w>
in sp
in dic
P or
al y
a h</w>
con duc
avail able</w>
en se</w>
su per
Fir st</w>
pres sion</w>
r ound</w>
Pre sident</w>
h ours</w>
det er
invol ved</w>
pro ject</w>
pp er</w>
Europe an</w>
f all</w>
Tw o</w>
op ening</w>
P r
ev ol
ro om</w>
k a</w>
E m
at a</w>
F re
ri s
g row
tur ned</w>
ric t</w>
ro ck</w>
gra m</w>
is land</w>
sa ying</w>
m ea
us es</w>
e duc
au l</w>
offic ial</w>
g s</w>
f lo
f ree</w>
C up</w>
appear ance</w>
Rep ubli
m id</w>
ev id
Com m
200 0</w>
ta king</w>
P i
oun t</w>
er ous</w>
gu lar</w>
min utes</w>
ver se</w>
cre w</w>
go ing</w>
larg est</w>
com peti
D is
cont ribu
writ er</w>
in t</w>
signific ant</w>
Rou te</w>
M at
L ou
high way</w>
ser ve</w>
S en
n er
a tic</w>
B al
comm er
high est</w>
V ic
earli er</w>
duc tion</w>
200 1</w>
initi ally</w>
am ent</w>
partic ularly</w>
f ar</w>
n ar
tra ining</w>
N i
de l</w>
as ked</w>
c ar</w>
C l
op e</w>
struc ture</w>
ex pan
st er
re sid
N e
r an</w>
proc ess</w>
C a
T ri
W ar
comm and</w>
m y
Nav y</w>
J er
ri c</w>
spec ial</w>
Char les</w>
g ar
gra du
M ag
mon th</w>
tri es</w>
idd le</w>
m a</w>
ex pla
tion ally</w>
K ingdom</w>
stu dio</w>
C ri
al ter
F rom</w>
direc tor</w>
cour t</w>
Thom as</w>
re fu
pre v
l es
lan gu
ee p</w>
lo ve</w>
Com pan
M ac
south ern</w>
si l
r ated</w>
pra ised</w>
increas ed</w>
h urricane</w>
Hi gh
U S
an y
V al
un its</w>
d au
st ar</w>
f o
b es</w>
B as
200 2</w>
reli gi
ear ned</w>
3 5</w>
1 st</w>
18 7
l ac
r ate</w>
pres sed</w>
all ing</w>
S a
ch urch</w>
S ing
Can ada</w>
Inter national</w>
or dered</w>
in ation</w>
st ry</w>
Cali for
fri end</w>
No .</w>
S an</w>
M et
ant ry</w>
del i
vi l</w>
P e
go al</w>
ne e
im medi
sy m
vi ol
au di
n et
Chri st
con v
relation ship</w>
w al
k ey</w>
lea gue</w>
col la
comm it
J ack
b at
su pp
hum an</w>
ac qu
in depend
Ang el
char t</w>
P aul</w>
bas e</w>
usu ally</w>
im ent</w>
b en
or ies</w>
Califor nia</w>
si mp
Nor th
north ern</w>
sy n
At lan
par ticip
c over</w>
cla ssi
win ds</w>
d on
de fin
posi tive</w>
mu st</w>
dow n
t old</w>
s ound</w>
con n
e p</w>
s al
S outh
bet ter</w>
en ough</w>
pas s
des p
sp ent</w>
fe der
S al
j our
fil ms</w>
appoin ted</w>
gu it
de par
po st</w>
n atur
te en</w>
le x</w>
fer ence</w>
out side</w>
typ e</w>
abo ve</w>
dre w</w>
ca tions</w>
p ing</w>
se y</w>
re al</w>
am a</w>
attemp t</w>
cent ral</w>
ac coun
n ine</w>
qu ick
previ ously</w>
As soci
recor ding</w>
r d</w>
Uni on</w>
P lay
tic ally</w>
fin d</w>
h ere</w>
stan ding</w>
Gre at</w>
direc ted</w>
fa iled</w>
M is
tiv ity</w>
iz ed</w>
l d
requ ired</w>
A ward</w>
el ements</w>
ac tive</w>
Compan y</w>
th y</w>
sh ing</w>
an i
9 0</w>
ren g
por tra
ali on</w>
Ger many</w>
C u
review s</w>
per son</w>
H or
complet e</w>
Indi a</w>
G overn
inter est</w>
st ates</w>
ap er</w>
W i
pro per
it self</w>
A ir
grou ps</w>
di um</w>
S k
pl at
on ic</w>
sec on
4 5</w>
Cour t</w>
li e</w>
gi ve</w>
desp ite</w>
en s
pri v
al d</w>
T er
g ir
S im
H arri
vil le</w>
h and</w>
ter m</w>
l in</w>
enti re</w>
ex ic
Tim es</w>
T a
F o
acc ording</w>
i ous</w>
st one</w>
Is land</w>
g ing</w>
fi gh
sol di
el ection</w>
j ects</w>
C ro
S pan
Sm ith</w>
ent ary</w>
beg inning</w>
om et
intro duced</w>
P ol
la w
d y
ha pp
H all</w>
comm is
I II</w>
st ance</w>
re ad</w>
V er
m ir
B a
ex ecu
O ff
st reng
Col lege</w>
wh ose</w>
pro fes
R eg
ly ric
issu e</w>
lan d
re f
U K</w>
en cy</w>
b loc
ca st
qu es
chang es</w>
ide a</w>
con f
S ovi
Wh ite</w>
or ial</w>
M exic
G r
B an
defe ated</w>
ad ditional</w>
Indi an</w>
fu ture</w>
lo ss</w>
I t
re view</w>
wh om</w>
esti g
W e</w>
st ly</w>
p ic
lu e</w>
b it</w>
ar ies</w>
n ation</w>
ili ties</w>
A wards</w>
pa ren
al low</w>
bro ther</w>
or ing</w>
evid ence</w>
chang ed</w>
reg ar
d ly</w>
pro gr
cu t</w>
C al
tur n</w>
quick ly</w>
v ers</w>
d omin
Pet er</w>
Min ist
inter national</w>
al ready</w>
Bl ack</w>
om s</w>
West ern</w>
t our
foo tball</w>
Ch urch</w>
c tion</w>
7 5</w>
el i
For ce</w>
f requ
ad s</w>
sh ar
Th at</w>
sh oo
c al</w>
si ze</w>
l a</w>
nov el</w>
co ast</w>
Ch in
ra in</w>
C lu
kn ow
mul ti
agre ed</w>
Ric hard</w>
arri ved</w>
soci al</w>
b an</w>
stu dy</w>
C ong
tech n
estim ated</w>
lik ely</w>
pas s</w>
sur face</w>
Brit ain</w>
R es
ing ly</w>
deci sion</w>
recog ni
ber g</w>
St .</w>
N Y</w>
D em
esp ec
S hi
sc ore</w>
war ded</w>
fem ale</w>
re ti
S ev
fer red</w>
some times</w>
I m
respon se</w>
sit u
lim ited</w>
mag azine</w>
espec ially</w>
pro gram</w>
C .</w>
de but</w>
ru p
in n
pl es</w>
F e
mon ey</w>
i als</w>
ta ining</w>
carri ed</w>
Ch ampionship</w>
m ental</w>
ac tu
am ed</w>
exp lo
ho p</w>
Sta r</w>
show s</w>
ant ly</w>
Mo st</w>
dec lar
r at
comm unity</w>
sp ort</w>
em er
b ing</w>
scen es</w>
fle et</w>
li sted</w>
L ater</w>
rema ining</w>
re ly</w>
G o
lit er
leng th</w>
199 9</w>
ven ue</w>
in ci
pl an</w>
c li
Vir gin
spe ed</w>
bre ak</w>
rel ated</w>
mu sical</w>
cent er</w>
n ature</w>
wor d</w>
becom ing</w>
Virgin ia</w>
ra il
E arly</w>
y ard</w>
larg er</w>
ar ran
Chi c
Can a
id a</w>
pre par
ent ered</w>
ac tions</w>
t on
or ds</w>
busin ess</w>
an ia</w>
g am
poli ce</w>
ra p
sp ace</w>
marri ed</w>
ri ghts</w>
sugg ested</w>
all er</w>
be l</w>
pres sure</w>
por ary</w>
er gy</w>
appro xim
T ex
na tive</w>
1 2
s y</w>
te ams</w>
ti ves</w>
oun ding</w>
ch o
per cent</w>
m ary</w>
lat ter</w>
mi ght</w>
se um</w>
dau ghter</w>
en tion</w>
pre sident</w>
si x
medi a</w>
fac t</w>
e e</w>
stu dents</w>
ad ap
ex per
Hi gh</w>
b ac
sum mer</w>
P at
eff ects</w>
B ec
s en</w>
app ear</w>
episo des</w>
ric k</w>
ol o
ch er</w>
set t
ri ver</w>
l ack</w>
doc um
is ing</w>
O ly
re gular</w>
mater ial</w>
s em
win ning</w>
h eal
ant i</w>
lea ving</w>
destro yed</w>
L os</w>
re ss</w>
h old</w>
I f</w>
sel ves</w>
g ade</w>
dic al</w>
repres ent
vir on
B en
trac ks</w>
sta ff</w>
sup por
Span ish</w>
D on
am m
provi de</w>
f ood</w>
inv estig
cour se</w>
ter rit
e du
hea d
h and
ed it
ent y</w>
M an</w>
charac ter
t ons</w>
pro posed</w>
Fl or
p on
influ ence</w>
inten ded</w>
est ing</w>
rev eal
av o
v ice</w>
Par ty</w>
cer tain</w>
wom an</w>
el led</w>
n d</w>
Sovi et</w>
es cap
H er</w>
on to</w>
h a</w>
over all</w>
sup ported</w>
run ning</w>
oc ca
si t</w>
pa st</w>
Associ ation</w>
mov ing</w>
y er</w>
shi re</w>
af ter
pa ir</w>
B ill
pur cha
3 2</w>
d one</w>
di a</w>
th us</w>
loc ation</w>
n early</w>
p h</w>
E v
ra y</w>
R ed</w>
bo x</w>
ad es</w>
g en</w>
form ing</w>
Clu b</w>
Chic ago</w>
hel ped</w>
G ol
w it
com ing</w>
F er
mov ement</w>
w all</w>
gre at
a warded</w>
Chin ese</w>
co st</w>
sur r
h u
M any</w>
mix ed</w>
C i
199 8</w>
Ma j
in d
issu ed</w>
ch ester</w>
po se</w>
star s</w>
experi ence</w>
cre ate</w>
w il
2 nd</w>
an ti
O per
person al</w>
divi sion</w>
Jack son</w>
contrac t</w>
s er</w>
l ec
me an
plan ned</w>
Ed ward</w>
ant as
t un
Ac t</w>
an o</w>
posi tions</w>
It ali
f y</w>
m ach
pro bl
b ia</w>
long er</w>
t op
g n
d ance</w>
D ar
P aci
langu age</w>
high er</w>
H ill</w>
att rac
cap tured</w>
compar ed</w>
at ory</w>
Coun cil</w>
T u
i ed</w>
ter ed</w>
ari an</w>
for ward</w>
sp ea
f ans</w>
approxim ately</w>
John son</w>
li ving</w>
ad minist
them selves</w>
y a</w>
produc er</w>
man u
T re
Hi story</w>
m ur
commer cial</w>
d a
L it
res earch</w>
bur g</w>
ea u
e ding</w>
al led</w>
mo stly</w>
sch o
T or
lea der</w>
cy cl
cur rent</w>
K ore
oper ation</w>
En ter
ra dio</w>
Gr and</w>
mar ked</w>
n y</w>
Paci fic</w>
scrip t</w>
Bill board</w>
fif th</w>
fi g
a tional</w>
T ran
un ic
oper ations</w>
S ar
et t</w>
rema ins</w>
s ex
l o</w>
consi der
d om
18 5
el ess</w>
app ears</w>
3 00</w>
buil dings</w>
whe ther</w>
re t</w>
ever y
es ses</w>
g l
d ram
ch all
par t
soldi ers</w>
prob ably</w>
b ly</w>
pro gre
p un
ow er</w>
N o</w>
exten ded</w>
dep ic
Al ex
N A</w>
dist ribu
cop ies</w>
me th
re si
acc ep
natur al</w>
W at
T ru
L y
S ince</w>
199 7</w>
lyric s</w>
chi ld</w>
p on</w>
Atlan tic</w>
Fran c
ar m</w>
po or</w>
exp ected</w>
leg al</w>
oo d
W e
diffic ult</w>
M ur
t est</w>
re ally</w>
coun tries</w>
Christi an</w>
feat ure</w>
u t</w>
tem per
se e
suff ered</w>
i ds</w>
A ra
pho to
G ame</w>
eff ect</w>
B y
Sec ond</w>
g old</w>
inclu des</w>
b ran
Flor ida</w>
immedi ately</w>
qu ali
D ay</w>
vo ice</w>
tain ment</w>
D ra
s a</w>
po p</w>
In f
or din
ist s</w>
sid es</w>
disc overed</w>
offic ers</w>
b ury</w>
fa il
S we
t i</w>
B et
st ers</w>
B ay</w>
A no
E mp
ou l
lea ve</w>
en a</w>
La ke</w>
E li
re moved</w>
Tex as</w>
E ast
increas e</w>
st ant</w>
B or
3 3</w>
i ans</w>
n av
cel eb
ta kes</w>
stat us</w>
tre at
Qu een</w>
subsequ ently</w>
ali zed</w>
Rom an</w>
st and</w>
par k</w>
pl ans</w>
al ways</w>
clo sed</w>
dam aged</w>
serv ices</w>
con fir
po ten
B rown</w>
el ected</w>
de b
nor m
Ano ther</w>
Ch ina</w>
Oly mp
j ected</w>
c ing</w>
probl ems</w>
y ards</w>
il e</w>
c overed</w>
S am
attac ks</w>
off ered</w>
St ation</w>
struc tion</w>
f ell</w>
in stru
Bo th</w>
c anc
ter ms</w>
re port</w>
M ary</w>
some thing</w>
ish ing</w>
sig n</w>
z z
villa ge</w>
ir s</w>
c m</w>
manag er</w>
e th
col on
h am
maj ority</w>
b lo
Se a</w>
ul l</w>
ran ked</w>
D ist
fi ght</w>
S ci
Cana dian</w>
di d
O ri
c lim
Afric a</w>
go t</w>
c ause</w>
3 7</w>
ra ised</w>
Lo ve</w>
ed y</w>
ul tim
priv ate</w>
ad op
on al</w>
min ute</w>
go als</w>
I ts</w>
me eting</w>
Cent er</w>
Vic tor
So ci
ti vi
we ight</w>
com posed</w>
reveal ed</w>
direc t</w>
con ver
inc or
P u
fin an
ach es</w>
Squ adron</w>
la tions</w>
insp ired</w>
H al
L ord</w>
High way</w>
r ating</w>
initi al</w>
gi ving</w>
Rus sian</w>
d ol
ogra phy</w>
li ved</w>
in o</w>
k eep</w>
G rou
s or
olo gi
profes sional</w>
b a</w>
G am
respec tively</w>
associ ated</w>
attac ked</w>
si ci
li g
cont ra
y et</w>
P en
con ven
an aly
num erous</w>
cri tic
199 5</w>
A F</w>
nee ded</w>
um e</w>
pri son
en viron
b ow
on na</w>
cre d
f loo
Angel es</w>
B re
O t
stitu te</w>
H ea
nec ess
fri ends</w>
G od</w>
Cent ral</w>
l led</w>
issu es</w>
laun ched</w>
Al l
C ra
f light</w>
sci enti
partic ular</w>
cast le</w>
mit ted</w>
S t</w>
occur red</w>
sing er</w>
con ditions</w>
ve hi
D el
m el
Jo s
con tains</w>
in formation</w>
D V
3 6</w>
dist inc
sh own</w>
ei gh
construc ted</w>
attemp ted</w>
M el
s un
s op
ex t
ter min
is tic</w>
tiv al</w>
F ri
cri tical</w>
f er</w>
J ew
pp ing</w>
G al
stitu tion</w>
st ems</w>
mar k
ti ally</w>
boo ks</w>
A .</w>
201 6</w>
pre mi
et ed</w>
199 6</w>
sch edu
i de</w>
pro mis
19 th</w>
pro duce</w>
Emp ire</w>
arch it
de al</w>
v a</w>
refer red</w>
n ear
pri or</w>
wh ole</w>
am ount</w>
lu s</w>
al le
sel ected</w>
num bers</w>
Sp ec
fin ally</w>
sm aller</w>
figh ting</w>
B ow
re fl
el ing</w>
resul ted</w>
C ast
ne ed</w>
disc us
broad cast</w>
J ack</w>
po pul
Y ear</w>
ac tor</w>
sec u
rev ol
ma kes</w>
M y</w>
o x
prin ci
defe at</w>
ac ting</w>
d ated</w>
su med</w>
ur ity</w>
rop ical</w>
bu l
piec e</w>
hou ses</w>
individu al</w>
199 4</w>
indu stry</w>
larg ely</w>
ro r</w>
pro f
ar tic
z a</w>
por tion</w>
C y
as signed</w>
Mic hi
G l
F A</w>
h our</w>
k i</w>
the at
k no
di g
leg is
k now</w>
Ear th</w>
comm ented</w>
guit ar</w>
T el
sp ir
conf lic
l evel
Phi li
educ ation</w>
min or</w>
p lot</w>
inter view</w>
m om
G il
audi ence</w>
win d</w>
t in
Cor ps</w>
K en
me d
s ay</w>
un able</w>
tre ss</w>
s ales</w>
direc tly</w>
S un
sp ital</w>
wor ds</w>
K a
tra de</w>
w ing</w>
sk y</w>
z ing</w>
att ention</w>
new sp
4 9</w>
refu sed</w>
S ain
re ach</w>
met res</w>
di e</w>
p re</w>
pri mary</w>
Fin al</w>
ne t</w>
N ic
lo yed</w>
W el
se x</w>
Itali an</w>
la b
si ster</w>
mar k</w>
E g
H om
v an</w>
cir cu
Bu t</w>
mas s</w>
Michi gan</w>
quar ters</w>
3 8</w>
ran t</w>
M y
v ely</w>
en jo
m ale</w>
offic er</w>
Mar tin</w>
th ink</w>
bel ow</w>
eng ine
declar ed</w>
ab and
emp loy
wor th</w>
g ate</w>
cont em
tra ditional</w>
c les</w>
Grou p</w>
ther e
h ood</w>
de pression</w>
Ro b
sci ence</w>
W ales</w>
performan ces</w>
c row
h op
u pper</w>
li ament</w>
l ear
ow ned</w>
un it</w>
know le
C lar
mat ches</w>
sk i</w>
dou ble</w>
an ced</w>
C ath
po ol</w>
loo k</w>
ov ers</w>
sub ject</w>
ac ted</w>
M ay
ar a</w>
L an
sion ed</w>
sett l
let ter</w>
Dem oc
comman der</w>
recor ds</w>
ic h</w>
re pe
ses sion</w>
A g
mo del</w>
J .</w>
H e
on ed</w>
religi ous</w>
pow er
Mar k</w>
i um</w>
Car ol
ra di
al o
competi tion</w>
M ul
mar ket</w>
is er</w>
3 4</w>
pro min
voc als</w>
antas y</w>
p al
deter min
ing u
Sev eral</w>
arti st</w>
199 2</w>
Bi g</w>
et er</w>
stand ard</w>
pro v
ac tivi
en ergy</w>
al ty</w>
DV D</w>
b ra
Cong ress</w>
pa in</w>
str ong
hi p</w>
ha bit
em o
cas es</w>
Z eal
ti tu
desig n
ic a</w>
O x
4 8</w>
D epar
kil omet
Minist er</w>
s ity</w>
m iddle</w>
continu e</w>
M oun
m ig
on a</w>
de st</w>
ar ms</w>
R ail
pas sing</w>
cla im</w>
tra ff
fi el
re p
H an
no tes</w>
b al</w>
them e</w>
le m</w>
cou ra
ad ed</w>
B ir
er o
publi c
st op</w>
T eam</w>
c le
3 rd</w>
writ ers</w>
P an
near by</w>
high ly</w>
ag ing</w>
ec ting</w>
ech an
cu st
separ ate</w>
ten ant</w>
D ou
Ac ad
4 7</w>
ac compan
ann ual</w>
pres ented</w>
m outh</w>
cent re</w>
Mexic o</w>
att ended</w>
cul ture</w>
ke ep
incor por
re duced</w>
Tim e</w>
tri ed</w>
F oo
bre a
o ts</w>
ent ation</w>
prac tice</w>
acc ess</w>
20 th</w>
a c</w>
S ir</w>
n ames</w>
me ans</w>
M S</w>
pu s</w>
St an
level s</w>
divi ded</w>
d ges</w>
ne igh
pea k</w>
cap ital</w>
d ea
e dition</w>
Afric an</w>
f ru
in tel
comp lex</w>
9 5</w>
nam ent</w>
ogra phi
M as
tw enty</w>
accep ted</w>
st ating</w>
marri age</w>
T hi
Mad onna</w>
199 3</w>
ex tr
t ac
D o
g a</w>
ess or</w>
199 1</w>
ex tre
heal th</w>
respon sible</w>
det ail
photo gra
H aw
ligh tly</w>
Scot land</w>
s ell</w>
pre c
S um
T our</w>
l v
S imp
b y
mov ie</w>
ch e
we al
as hi
k in
ma xim
buil d</w>
scho ols</w>
4 1</w>
i o</w>
ee ded</w>
s ely</w>
5 5</w>
net work</w>
man aged</w>
The ir</w>
l ined</w>
it es</w>
Ho t</w>
S c
P ubli
loc k</w>
char ge</w>
r ing
d g
at eg
effor t</w>
Chri s</w>
li t</w>
y m
Scot t</w>
J ones</w>
F le
effor ts</w>
il ls</w>
econom ic</w>
Gre ek</w>
col lege</w>
ti tled</w>
R ol
T i
il s</w>
O ld</w>
b our
Depar tment</w>
resul ting</w>
pa id</w>
3 9</w>
dro pped</w>
eu tenant</w>
Maj or</w>
show ed</w>
K e
met al</w>
Zeal and</w>
F ore
l am
ri ch</w>
in side</w>
d ead</w>
M e</w>
as sa
oo ds</w>
k ept</w>
Th ree</w>
inn ings</w>
4 2</w>
Inf antry</w>
H el
p al</w>
allow ing</w>
a sion</w>
cycl one</w>
cer em
su s</w>
pur su
4 00</w>
t emp
ll ery</w>
ret ary</w>
beg ins</w>
vari ety</w>
ci es</w>
mor ning</w>
serv ation</w>
o il</w>
R am
ay ed</w>
Com mit
4 6</w>
k o</w>
sch ol
ti z
Ser vice</w>
design ated</w>
in ches</w>
as p
per or</w>
ur al</w>
qu ality</w>
Cre ek</w>
Rec ords</w>
a ke</w>
comb at</w>
ac tivity</w>
tion ary</w>
ar ity</w>
d d
di os</w>
co ach</w>
S il
ex hi
continu es</w>
writ e</w>
an ds</w>
de ep</w>
p ment</w>
ti fied</w>
4 4</w>
Fo x</w>
K ar
fav or
g la
t age</w>
w ant</w>
H ow
star ting</w>
ru le</w>
sour ce</w>
B at
ent ing</w>
pri mar
D es
cri tici
C are
4 3</w>
f ish</w>
paren ts</w>
D un
rou gh</w>
g ri
sa ys</w>
6 5</w>
Fe der
St eph
4 th</w>
me ant</w>
in ch</w>
f ted</w>
view ers</w>
ser ving</w>
s tic</w>
ch est
ad o</w>
m id
f ounded</w>
Fil m</w>
v es
conduc ted</w>
l an</w>
S ur
com pu
K u
b b
B ru
stru gg
an der</w>
Eg yp
direc tion</w>
stor ies</w>
pres ence</w>
cur ren
stor y
Soci ety</w>
R ock</w>
sc oring</w>
194 2</w>
foo t</w>
ac ci
er e
Ad mir
is hop</w>
dem on
Ar th
p ay</w>
Hun g
L ab
5 th</w>
b ound</w>
re r</w>
f ying</w>
G ir
re plac
bo t
sequ ence</w>
sel ling</w>
St or
bir ds</w>
H on
th ings</w>
u es</w>
trans ferred</w>
dra w</w>
Commit tee</w>
am p
en emy</w>
ha vi
Pr ince</w>
pea ked</w>
al ism</w>
St one</w>
sy stems</w>
concer t</w>
re comm
F u
Col um
eng ine</w>
Vi et
becom es</w>
ch em
traff ic</w>
adv ance</w>
gre ater</w>
Li ke</w>
t ric
et te</w>
sc ale</w>
st y</w>
k ind</w>
conclu ded</w>
ter y</w>
em ed</w>
rema in</w>
proper ty</w>
play s</w>
attemp ts</w>
en coun
m un
T ro
ex clu
rela tively</w>
poten tial</w>
de bu
d i</w>
op port
pl ant</w>
Willi ams</w>
r i</w>
c in
Man chester</w>
primar ily</w>
ob served</w>
chi ef</w>
T om</w>
k ly</w>
f ran
Harri son</w>
actu ally</w>
a ward</w>
Bec ause</w>
scre en</w>
finan cial</w>
anim als</w>
imp act</w>
der i
c all</w>
ong side</w>
ear ing</w>
P a
South ern</w>
pre ci
c over
co ast
H urricane</w>
coll ection</w>
Bo ston</w>
Be fore</w>
multi ple</w>
ci ties</w>
feat uring</w>
Cap tain</w>
G or
appro ach</w>
ap pe
P enn
sh el
m echan
fac ed</w>
St e
194 4</w>
p ha
gi an</w>
f lu
La tin</w>
gen cy</w>
dou b
S ol
bro ke</w>
mis sed</w>
p tion</w>
dist ance</w>
tra in</w>
situ ation</w>
a e</w>
Arth ur</w>
secon ds</w>
Di rec
Batt alion</w>
ver si
s sed</w>
ann a</w>
we b
pass eng
G ames</w>
il lu
o ds</w>
jo in</w>
D ut
s ound
compan ies</w>
re por
independ ent</w>
Ox ford</w>
I tal
er o</w>
it ch
colla bor
B .</w>
c ks</w>
su sp
s lightly</w>
tri al</w>
sen se</w>
Ser ies</w>
G ri
F ur
ro yal</w>
identi fied</w>
fig ure</w>
tor pe
d ark</w>
con cent
h us
w el
feder al</w>
di c</w>
pri se</w>
to day</w>
thre at
complet ely</w>
199 0</w>
stri al</w>
6 4</w>
c ross</w>
ultim ately</w>
re stor
pro ved</w>
ci ent</w>
draw n</w>
Y oun
Lou is</w>
f low
confir med</w>
T est</w>
B ack
jo b</w>
ep h</w>
D en
ac u
com es</w>
struc k</w>
maxim um</w>
ra tic</w>
E r
mean ing</w>
Hi stor
cha p
p sy
r ying</w>
L a</w>
Acad emy</w>
s ought</w>
us tice</w>
speci fic</w>
p ons</w>
Y u
conc ept</w>
O b
B BC</w>
194 5</w>
ac ts</w>
or d
di sea
Li fe</w>
fol low</w>
t y
re land</w>
ti an</w>
m ine</w>
C as
st ward</w>
soci ety</w>
eb all</w>
de si
comb ined</w>
main ly</w>
expla ined</w>
mo del
auth or</w>
w ick
min im
194 1</w>
ren ce</w>
P ic
as k</w>
8 5</w>
offic ials</w>
K o
J es
tri c</w>
influ enced</w>
k y</w>
squ are</w>
e way</w>
w s</w>
prev ent</w>
s ac
Fran k</w>
poli cy</w>
der son</w>
ver sions</w>
V o
power ful</w>
el ev
K h
Ital y</w>
D oc
it ted</w>
th ous
B ul
reas on</w>
c alling</w>
ar med</w>
sy lv
Sain t</w>
al ongside</w>
Enter tainment</w>
c ro
pas ses</w>
g ained</w>
n es</w>
re sol
Americ ans</w>
inter pre
sour ces</w>
batt les
ck y</w>
success fully</w>
D av
bo at</w>
Bri gade</w>
organiz ation</w>
me et</w>
go ti
cap tain</w>
the ory</w>
Bri dge</w>
ri ed</w>
ti s</w>
iz ation</w>
al one</w>
rec ent</w>
view s</w>
nomin ated</w>
L ine</w>
H a
or ders</w>
ne u
W om
streng th</w>
arti sts</w>
b ar</w>
t les</w>
en coura
ste in</w>
n or</w>
ea si
wid ely</w>
promo ted</w>
ori ties</w>
nav al</w>
re aching</w>
Su n</w>
F ort</w>
I l
B la
su st
per f
accoun t</w>
' m</w>
fore ign</w>
al ties</w>
resul ts</w>
em an</w>
win ter</w>
Mu seum</w>
I reland</w>
Gre en</w>
di tionally</w>
elec tr
be havi
A venue</w>
z es</w>
R el
et er
br ary</w>
albu ms</w>
B ill</w>
subsequ ent</w>
great est</w>
Par is</w>
s li
cont ent</w>
A th
inv asion</w>
B oo
ro ads</w>
ea se</w>
M us
v ey</w>
Le e</w>
comm unic
Jos eph</w>
Wh it
198 9</w>
b on
evol ution</w>
t ol
ta tions</w>
t el</w>
el low</w>
Cro ati
y our</w>
ol der</w>
do ing</w>
offic ially</w>
g lo
g as</w>
F ar
is ation</w>
l or</w>
it a</w>
shor tly</w>
en e</w>
m ol
di sh</w>
194 3</w>
ta il</w>
coun ty</w>
re n</w>
tech ni
six th</w>
H L</w>
j un
ent er</w>
ex pressed</w>
appear ances</w>
cau sing</w>
a u</w>
tru e</w>
blo od</w>
D on</w>
st y
tw el
re sc
repres ented</w>
D ev
ap e</w>
Republi c</w>
g ation</w>
Victor ia</w>
S R</w>
m as</w>
organiz ed</w>
D re
av al
wea ther</w>
6 00</w>
resid ents</w>
7 8</w>
tel ls</w>
piec es</w>
Reg iment</w>
wea k
sea sons</w>
la id</w>
d ary</w>
St ar
n own</w>
wor ld
T ropical</w>
per ial</w>
beli ev
R oo
m ess
D ani
ne goti
po st
de dic
k et
Li ve</w>
ne ga
aw are</w>
aff ected</w>
rec eption</w>
Lit tle</w>
fi gu
wat er
pil ot</w>
dow s</w>
W ol
O p
T ow
A A</w>
bo dies</w>
vi sit</w>
ati ves</w>
D r.</w>
ent er
L eg
sa ur
inf all</w>
bo y</w>
New s</w>
a x
el ed</w>
foc us</w>
' re</w>
Ger man
gi a</w>
phy sical</w>
grow th</w>
th in</w>
adv ant
wea pons</w>
it able</w>
se l</w>
oli c</w>
Val ley</w>
Steph en</w>
ri s</w>
a head</w>
usu al</w>
air ed</w>
diffic ul
fir ed</w>
hor se</w>
hear t</w>
ou l</w>
p el
Par liament</w>
heav ily</w>
U pon</w>
lea ders</w>
n ic
im age</w>
anc ing</w>
198 0s</w>
194 0</w>
bir th</w>
re in
it ation</w>
dist rict</w>
our ed</w>
har d
def ense</w>
sylv ania</w>
F a
at ures</w>
stu dent</w>
stu dies</w>
k g</w>
sh are</w>
n es
tu al</w>
so li
arti llery</w>
mar ine</w>
c are</w>
org an</w>
view ed</w>
fe el</w>
18 0
execu tive</w>
Chi ef</w>
bor der</w>
R y
progr am
agre ement</w>
ul f</w>
S el
debu ted</w>
promin ent</w>
cap ture</w>
bri ef
M ass
sp ring</w>
consi sted</w>
mil e</w>
figu res</w>
inj ury</w>
gra phi
5 2</w>
ac tors</w>
beg in</w>
C ross</w>
equi pment</w>
be at</w>
pat ter
mo di
necess ary</w>
ric ket</w>
quar ter</w>
is es</w>
S pi
argu ed</w>
li ghts</w>
re y</w>
set ting</w>
ex pe
ri sh</w>
R og
H um
in te
a i</w>
claim s</w>
op posed</w>
id es</w>
K el
com pos
M .</w>
J im</w>
b ring</w>
an i</w>
retur ning</w>
Fle et</w>
7 6</w>
ac ity</w>
Th ough</w>
ay lor</w>
contem porary</w>
con stitu
st op
b lue</w>
Foo tball</w>
ta x
per c
An d</w>
hus band</w>
O ver</w>
197 0s</w>
d ang
flo or</w>
eff ective</w>
devel op</w>
s s
am i</w>
7 th</w>
mat ter</w>
main tained</w>
V ol
L ar
Bo b</w>
1 50</w>
cam p</w>
trav el</w>
ot a</w>
de g
st ations</w>
o k
196 0s</w>
vis ited</w>
5 1</w>
fa st</w>
g in</w>
ex pl
cat eg
Dut ch</w>
I V</w>
critici zed</w>
activi ties</w>
re al
su res</w>
V en
gre w</w>
os en</w>
T om
North ern</w>
Carol ina</w>
g ets</w>
tow ard</w>
sh es</w>
str ated</w>
Hom er</w>
ra tive</w>
ali sts</w>
hear d</w>
ci tiz
cou ple</w>
ag on
c ore</w>
tour nament</w>
ea sed</w>
conflic t</w>
li st
sing les</w>
n in
c s</w>
is s
oper ated</w>
ock ey</w>
ti a</w>
A p
as h</w>
exc ept</w>
mach ine</w>
refer ence</w>
Scot tish</w>
spe ech</w>
ric ul
territ ory</w>
me dical</w>
world wide</w>
tr ying</w>
re ment</w>
198 7</w>
fic ations</w>
tre es</w>
C ur
lo ad</w>
th u
198 8</w>
der ship</w>
o res</w>
pro pos
T y
avo id</w>
Col on
o is</w>
m ond</w>
sp here</w>
Au stri
si vely</w>
W rit
lea ves</w>
do w</w>
pre dic
val ue</w>
L in
F antasy</w>
treat ment</w>
lo sop
5 4</w>
histor ian</w>
Back ground</w>
Po st</w>
Dist rict</w>
F es
spor ts</w>
new s</w>
17 9
han ds</w>
a il</w>
li s</w>
bu s</w>
Govern ment</w>
em ic</w>
B ey
qu i
loo king</w>
ey e</w>
J e
emp ha
uni versity</w>
chall eng
s low</w>
there fore</w>
ra infall</w>
ch ampionship</w>
gir l</w>
ch osen</w>
w alls</w>
Du ke</w>
lo sing</w>
m es</w>
tw ice</w>
ci vil
ti l
ing ham</w>
frequ ently</w>
Su per</w>
li ce</w>
for t</w>
Stu dios</w>
o es</w>
N A
Po lish</w>
re ports</w>
gu est</w>
ad dre
jour n
ici ent</w>
ca su
off er</w>
st ood</w>
typ es</w>
emb ly</w>
con secu
prob lem</w>
S an
requ i
Sen ate</w>
sig n
off ensive</w>
ab eth</w>
min d</w>
5 6</w>
in sul
govern or</w>
el im
6 th</w>
op ini
follow s</w>
en ge</w>
H av
s am
East ern</w>
H ome</w>
ser ves</w>
sound track</w>
Govern or</w>
B on
w ounded</w>
ri t</w>
manu fac
surr ounding</w>
sen ior</w>
m it</w>
ad ver
n it
con tained</w>
evel op
bi g</w>
Eli z
er t</w>
deg ree</w>
back ground</w>
t ting</w>
l ers</w>
K i
ep lay</w>
H ear
her self</w>
wor kers</w>
supp ly</w>
Christ mas</w>
Un der</w>
L ad
typ ically</w>
ag a</w>
es sion</w>
ag gre
Oper ation</w>
Al lied</w>
Admir al</w>
am bi
pa ti
gh t
gran d
fic tion</w>
C ru
simp ly</w>
over y</w>
li ves</w>
hou se
co m</w>
mil li
air s</w>
hor ses</w>
ak er</w>
regar ded</w>
fel low</w>
sa f
rail way</w>
R evi
hea ds</w>
T aylor</w>
ch or
s ets</w>
5 3</w>
consecu tive</w>
I S
unk nown</w>
Bra d
is on</w>
ho st</w>
vo te</w>
ey es</w>
198 6</w>
auth ority</w>
exper im
escap e</w>
ch ose</w>
D y
D evelop
can not</w>
Mon t
att ribu
fun c
S ul
sp i
grow ing</w>
B ran
gu es</w>
E ach</w>
s sic</w>
comm uni
particip ated</w>
Cath olic</w>
Alex ander</w>
web site</w>
no thing</w>
ant ine</w>
gh ly</w>
mu sici
in son</w>
ig g
do or</w>
produc ers</w>
R ho
sev ere</w>
men tioned</w>
bro ken</w>
bil lion</w>
gra de</w>
Jo e</w>
to m</w>
north east</w>
k ill</w>
new ly</w>
Wil son</w>
fil ming</w>
adv anced</w>
adop ted</w>
o dy</w>
commis sioned</w>
H ou
Fes tival</w>
th ick</w>
ni e</w>
c en
R A
hol ds</w>
h i</w>
ec tions</w>
t ree</w>
Penn sylvania</w>
F am
sym bo
sit es</w>
op pon
g ent
colla p
gre en</w>
bo ats</w>
al li
S om
cap acity</w>
H y
il ies</w>
in ner</w>
se g
pi ed</w>
fam ous</w>
f ra
W W
Is lands</w>
ba sis</w>
pro mp
ser ious</w>
in si
op position</w>
Youn g</w>
newsp aper</w>
increas ing</w>
Rec eption</w>
il ing</w>
b ill</w>
squ adron</w>
6 6</w>
be y
bu t
im ag
aband oned</w>
Qu e
Re gi
commit tee</w>
dri ve</w>
Ci vil</w>
ound ation</w>
ri se</w>
le g</w>
et e</w>
d get</w>
t ext</w>
v on</w>
i on</w>
k in</w>
fran chi
fil med</w>
ris k</w>
per form</w>
fl ying</w>
Al bu
rest ric
is s</w>
archit ec
sec tions</w>
p es</w>
cre ating</w>
cir c
ee ds</w>
la p</w>
tow er</w>
Wh at</w>
1 1
M r.</w>
deli ver
et ting</w>
S w
S pain</w>
d ar
Me an
occu p
ro man
T ech</w>
S how</w>
plan ts</w>
stre et</w>
possi bly</w>
individu als</w>
g ar</w>
v ement</w>
contra st</w>
lan ding</w>
D ef
9 th</w>
199 0s</w>
Jer sey</w>
bey ond</w>
Mi ke</w>
Har ry</w>
re pu
x on</w>
anc y</w>
fail ure</w>
d ence</w>
e tic</w>
L au
L ew
arran g
re tre
histor ical</w>
ev acu
B ol
ur ban</w>
D .</w>
nega tive</w>
dra ft</w>
ampi on</w>
B A</w>
kil ling</w>
ci vil</w>
Cast le</w>
norm al</w>
j a</w>
Ch am
M em
A ri
193 9</w>
Stor m</w>
R an
Ad v
lan e</w>
gen us</w>
manag ement</w>
col um
P la
Franc is
D ep
achi eved</w>
titu de</w>
occu pied</w>
' ve</w>
beli eve</w>
al ing</w>
thre at</w>
s ent
Char t</w>
ber ed</w>
B ond</w>
mo tion</w>
ro les</w>
ent ure</w>
Pro duction</w>
I rish</w>
7 7</w>
si bility</w>
reti red</w>
re bel
ide as</w>
cent u
tou ch
ing er</w>
In stitute</w>
sh ore</w>
Is ra
s le
impro ved</w>
sub stan
ap ers</w>
5 8</w>
disea se</w>
ly wood</w>
T am
fu el</w>
di am
ac her</w>
determin ed</w>
el ling</w>
ul ts</w>
H .</w>
hom es</w>
fri end
A pp
ner ship</w>
brief ly</w>
per man
disp la
198 5</w>
s tic
conv inc
ban ds</w>
196 8</w>
administ ration</w>
5 7</w>
R .</w>
moun ted</w>
sh all</w>
person nel</w>
T e
p ay
gran ted</w>
sil ver</w>
recei ve</w>
re jected</w>
se at</w>
Mean while</w>
expan sion</w>
Eliz abeth</w>
gi ves</w>
D et
sur ed</w>
r one</w>
ho spital</w>
plac es</w>
kilomet res</w>
twel ve</w>
p aper</w>
exten sive</w>
d ata</w>
ed om</w>
O f</w>
tur ns</w>
sex ual</w>
sur ren
O hi
C ul
ben ef
an s
lea dership</w>
197 0</w>
experi enced</w>
Republi can</w>
M ast
d ged</w>
cros sing</w>
e z</w>
ob j
D ue</w>
l em
expan ded</w>
G la
coun ter
contro lled</w>
F our</w>
na m</w>
descri bes</w>
s low
er c
di t</w>
Phi la
cho ice</w>
6 2</w>
north west</w>
l li
ar re
Li ver
7 2</w>
Sec retary</w>
or ation</w>
p lu
acqu ired</w>
a id</w>
did n</w>
B lue</w>
ha ps</w>
198 4</w>
allow s</w>
f ought</w>
ban k</w>
Phila del
sec urity</w>
Ar m
cau ght</w>
P .</w>
T op</w>
3 0
dram a</w>
ur a</w>
s lo
Philadel phi
cont act</w>
8 00</w>
vehi cles</w>
schedu led</w>
ul ated</w>
z er</w>
sugg ests</w>
fam ilies</w>
sp lit</w>
h all</w>
D er
ti tles</w>
ta r</w>
pre me</w>
is ers</w>
pre sid
intel lig
Doc tor</w>
su it</w>
Ohi o</w>
Geor gia</w>
Cam bridge</w>
O ut
tran sport</w>
8 1</w>
comm only</w>
an cient</w>
O li
st ep
e ous</w>
Philadelphi a</w>
nu clear</w>
artic le</w>
anim al</w>
com edy</w>
it ors</w>
bi an</w>
aval ry</w>
T C</w>
Bra z
Com mission</w>
voc al</w>
dec k</w>
sev enth</w>
pow ers</w>
pur pose</w>
S ong</w>
f an</w>
wat ers</w>
auth orities</w>
head quarters</w>
fla g</w>
gi c</w>
M D</w>
R ea
ac ad
Al so</w>
ro oms</w>
centu ries</w>
at e
M iddle</w>
is lands</w>
L is
t s
196 7</w>
L aw
in ess</w>
en ni
8 th</w>
sh er</w>
defin ed</w>
rec ently</w>
Rus sia</w>
conn ected</w>
I s</w>
col or</w>
R ock
6 1</w>
b eau
tra dition</w>
prot ected</w>
inci dent</w>
cul tural</w>
Su b
Oc ean</w>
G ro
P lan
Sh er
rest ling</w>
inter change</w>
198 0</w>
Bo ard</w>
sp read</w>
s earch</w>
ed ge</w>
advant age</w>
Ot tom
Liver pool</w>
inf antry</w>
fin ds</w>
Com man
weal th</w>
N inten
wa ve</w>
et ts</w>
mi x</w>
d red</w>
sing ing</w>
lo cations</w>
cred ited</w>
Ch an
8 7</w>
ab les</w>
con nec
rev e
batt alion</w>
K in
y ers</w>
st ay</w>
L oc
pa rent</w>
Ninten do</w>
M ov
uni que</w>
b ad</w>
D or
W .</w>
d ates</w>
cre ation</w>
appro ved</w>
Colum bia</w>
exist ing</w>
St ra
L inc
ar ily</w>
elec tric</w>
accompan ied</w>
go es</w>
at mo
di v
con taining</w>
A sia</w>
enti rely</w>
Squ are</w>
fiel ds</w>
or chest
Per son
bre ak
O ver
val ent</w>
An drew</w>
Mar y
att le</w>
o ted</w>
bir d</w>
6 7</w>
cri tic</w>
gr ounds</w>
fin ish</w>
contribu ted</w>
Linc ol
na tion
them es</w>
R et
floo ding</w>
El ec
po sing</w>
f are</w>
youn ger</w>
provi des</w>
bu dget</w>
Kore an</w>
analy sis</w>
purcha sed</w>
gu il
al a</w>
spec im
fil led</w>
dedic ated</w>
Be at
P ort</w>
Li eutenant</w>
per forming</w>
t rou
6 3</w>
198 3</w>
qu ite</w>
hol ding</w>
con dition</w>
a wards</w>
ran ce</w>
m ic
j um
d ry</w>
arri val</w>
s ad
def ensive</w>
z ation</w>
Francis co</w>
s .</w>
eng aged</w>
te dly</w>
emp loyed</w>
fol k</w>
cerem ony</w>
dom es
Develop ment</w>
196 4</w>
st ead</w>
st ages</w>
Jew ish</w>
Pe ople</w>
E .</w>
Pr inc
196 9</w>
Pri me</w>
9 6</w>
k ins</w>
L ong</w>
hea ded</w>
curren tly</w>
Care y</w>
g er
eff ec
com pla
U l
on c
Bro ad
b on</w>
m ist
phi losop
ven tion</w>
il le</w>
struc tures</w>
ket ball</w>
p her</w>
M id
T own</w>
w ise</w>
occu r</w>
it an</w>
inten sity</w>
k ey
wh y</w>
19 14</w>
19 18</w>
sel s</w>
in t
bur gh</w>
an ity</w>
ron ic
l un
car ry</w>
M ore</w>
hi ll</w>
b rown</w>
prot ect</w>
ir ing</w>
Off ice</w>
foc used</w>
l ler</w>
Play Station</w>
gu ard</w>
g ain</w>
198 2</w>
consi st
H MS</w>
pe ace</w>
char ged</w>
197 1</w>
rec ru
f ts</w>
ma ster</w>
compu ter</w>
clo sely</w>
l ess
consi sts</w>
H it
st ered</w>
St eve</w>
ric al</w>
Ar t</w>
com ic</w>
196 6</w>
c ement</w>
d ney</w>
7 9</w>
Ori gin
An derson</w>
197 2</w>
Con ference</w>
Bri an</w>
pi ano</w>
197 9</w>
i x</w>
e es</w>
kn ess</w>
im pl
By z
sa tis
Mil ler</w>
fac ilities</w>
On ce</w>
elim in
b or</w>
suppor ting</w>
critic ism</w>
sp ac
plan et</w>
id ly</w>
iz e</w>
Olymp ic</w>
8 6</w>
re ign</w>
5 9</w>
Ju li
Am ong</w>
inten si
ti e</w>
mur der</w>
met ers</w>
shoo ting</w>
pri son</w>
E ver
18 th</w>
Or der</w>
a im
knowle dge</w>
sel ection</w>
regi ons</w>
R en
d den</w>
sol e</w>
s m</w>
196 5</w>
pat ro
As s
torpe do</w>
re vi
Rail way</w>
fi x
un d
e ge</w>
Em peror</w>
oun der</w>
coun cil</w>
prepar ed</w>
Li ght</w>
hi red</w>
read ing</w>
9 9</w>
W ee
c er</w>
c a</w>
car s</w>
opport unity</w>
recei ving</w>
pl ane</w>
ques tion</w>
Sy stem</w>
recogni zed</w>
7 4</w>
197 5</w>
disp lay</w>
uni on</w>
C D</w>
stri ke</w>
ou d</w>
no table</w>
c alls</w>
tra ins</w>
con ference</w>
b ad
e x</w>
B lo
dist ingu
des c
Sing ap
German s</w>
simp le</w>
it or</w>
ing ing</w>
Sha k
provi ding</w>
a vi
ru m
ev in</w>
em e</w>
P ra
Wal ter</w>
8 8</w>
fic ally</w>
B ut
S S</w>
On ly</w>
in struc
197 4</w>
qu es</w>
bur n</w>
Fran k
f low</w>
ta x</w>
char ts</w>
ri a</w>
develop ing</w>
In du
Co ast</w>
Bl ack
uni or</w>
man n</w>
it ch</w>
N HL</w>
v el
rac y</w>
rap idly</w>
prot ection</w>
ag ent</w>
Sh or
P as
le gi
no t
n ow
6 8</w>
vol ume</w>
m 2</w>
K entu
7 1</w>
G ulf</w>
197 3</w>
sol o</w>
i si
Lew is</w>
f it</w>
la u
ses sions</w>
public ation</w>
auth or
Singap ore</w>
c ell</w>
G rant</w>
Democ ratic</w>
Dav is</w>
Hol lywood</w>
shar ed</w>
M ed
ri e</w>
casu alties</w>
il ly</w>
dig ital</w>
tran si
k ings</w>
tar get</w>
f al
Bet ween</w>
expe dition</w>
wh ere
respon ded</w>
and a</w>
ent ry</w>
Da ily</w>
cha e
temper ature</w>
mis sing</w>
econom y</w>
vol un
ell a</w>
bri ef</w>
197 6</w>
an k
r are</w>
it ting</w>
7 3</w>
let ters</w>
secon dary</w>
ev al</w>
g le</w>
popul arity</w>
fun ction</w>
tur ing</w>
ei ved</w>
ch ance</w>
t ex
inter section</w>
J our
tem porary</w>
onc é</w>
ul a</w>
Dis ney</w>
C el
sk a</w>
P it
E p
po t
lu m</w>
la bel</w>
re ali
inj ured</w>
y ellow</w>
lo sses</w>
s burg</w>
ran k</w>
N ight</w>
g etting</w>
tran spor
signific antly</w>
Mus li
pain ting</w>
Wom en</w>
si zed</w>
sa ve</w>
B us
T yp
ad ult</w>
hy dro
el ement</w>
E l</w>
O s
k new</w>
ad ding</w>
re ar</w>
liter ature</w>
g on</w>
Bey oncé</w>
la ke</w>
I ni
D an
Fi eld</w>
mis sions</w>
techn ology</w>
r hy
rou ghly</w>
f ashi
row s</w>
r ates</w>
regar ding</w>
A z
no te</w>
Ar ts</w>
bro thers</w>
th eless</w>
ever theless</w>
any thing</w>
Po int</w>
in der</w>
sha pe</w>
str ateg
sh ment</w>
ear ed</w>
pro jects</w>
6 9</w>
re place</w>
pa irs</w>
Colon el</w>
dec reas
arran ged</w>
N ap
8 9</w>
intro duction</w>
resi stance</w>
gam eplay</w>
laun ch</w>
. C.</w>
reas ons</w>
story line</w>
il ton</w>
Su preme</w>
is ol
D am
sion ally</w>
m on</w>
Lad y</w>
8 2</w>
co al</w>
wat ched</w>
ec e</w>
re action</w>
Kentu cky</w>
st able</w>
da ily</w>
Col l
cel ls</w>
194 6</w>
198 1</w>
sha ped</w>
ch am
Pro t
N el
acc ur
an k</w>
dro p</w>
ru les</w>
la sted</w>
f lan
gu ar
law s</w>
J ean</w>
per haps</w>
est ate</w>
enjo yed</w>
tur ning</w>
2 50</w>
ren amed</w>
sem i</w>
195 0s</w>
dec lined</w>
ac res</w>
so ft</w>
A l</w>
ne st</w>
Nor way</w>
conver ted</w>
ar i</w>
edit or</w>
ed ly</w>
vers y</w>
repu tation</w>
f ly</w>
reg im
19 17</w>
c ited</w>
ab ilities</w>
u ally</w>
sp ar
bor ne</w>
Mass ach
is tics</w>
li f
te enth</w>
franchi se</w>
tic es</w>
Olymp ics</w>
po em</w>
gen re</w>
south east</w>
ampion ships</w>
8 4</w>
Massach us
The at
au t
oper ating</w>
l ling</w>
exist ence</w>
ag ricul
h eight</w>
alter native</w>
ti li
th in
Massachus etts</w>
produc ing</w>
ca sting</w>
bu ried</w>
ir man</w>
F L</w>
po ses</w>
Lincol n</w>
ste el</w>
mat h</w>
opini on</w>
vis ual</w>
Na z
ou ts</w>
ic h
easi ly</w>
P A</w>
J am
increas ingly</w>
B ook</w>
produc t</w>
comb ination</w>
ry st
c ricket</w>
gra ded</w>
appro ached</w>
S ea
wat ch</w>
Air port</w>
syn the
z one</w>
sc ul
plan ning</w>
K ir
In depend
pro te
La w</w>
on ia</w>
ex erc
0 th</w>
coll ected</w>
9 4</w>
194 8</w>
ssi ve</w>
sec ret</w>
ri an</w>
extre m
u tionary</w>
sec ts</w>
succ eeded</w>
or ated</w>
S atur
model s</w>
v el</w>
196 0</w>
A sh
saf ety</w>
mar ks</w>
w oo
assa ult</w>
F lo
d rin
hum ans</w>
Clar k</w>
A R
av es</w>
Simp sons</w>
l earned</w>
elec tric
A C
indic ated</w>
sust ained</w>
stra ight</w>
Por t
Ear l</w>
j i</w>
p r
C ir
Dani el</w>
promo tion</w>
197 8</w>
bran ch</w>
8 3</w>
car rying</w>
d or
P l
S ongs</w>
bre eding</w>
show ing</w>
desig ns</w>
viol ence</w>
st ol</w>
ex change</w>
ari a</w>
ob serv
plat form</w>
stat ement</w>
Publi c</w>
vers al</w>
7 00</w>
Mc C
L am
def ence</w>
be y</w>
b ited</w>
o ther
ir on</w>
cam pus</w>
Ar ch
extr a</w>
ag ement</w>
distribu tion</w>
P ur
si mul
0 7</w>
bas eball</w>
di date</w>
tri bu
impro ve</w>
Ottom an</w>
st ock</w>
se ems</w>
y n</w>
vers ary</w>
in i</w>
Viet nam</w>
weak ened</w>
requ est</w>
19 15</w>
scienti fic</w>
b at</w>
S and
in ts</w>
Shor tly</w>
M ount</w>
M au
ari o</w>
mom ent</w>
1 20</w>
I G
descri ption</w>
Pol and</w>
Cap e</w>
f arm
fre eway</w>
Pre ss</w>
ru led</w>
earli est</w>
197 7</w>
Sy dney</w>
crow d</w>
settl ement</w>
ol a</w>
en der</w>
u n</w>
V an</w>
f r
environ ment</w>
alo gue</w>
re tained</w>
meth od</w>
saur us</w>
gener ation</w>
app lied</w>
Im perial</w>
stre am</w>
19 50</w>
progr ams</w>
pri sing</w>
Su per
fore st</w>
Spec ial</w>
c ab
Mary land</w>
in um</w>
com position</w>
estab lish</w>
p ag
cor rec
ti ed</w>
scul p
re serve</w>
der ing</w>
assi stant</w>
Nav al</w>
Cha p
res our
th ro
bo w</w>
writ es</w>
ampi ons</w>
E ven</w>
south west</w>
coast al</w>
ci a</w>
iss ance</w>
196 3</w>
k i
comp li
h its</w>
insul a</w>
sec ure</w>
bas s</w>
b ound
ri dge</w>
H ay
inte gr
Tow n
G ram
ma y
bat tery</w>
poli tics</w>
de ep
M TV</w>
it ems</w>
ef s</w>
stre t
can didate</w>
S us
B lu
deliver ed</w>
19 16</w>
i g</w>
gradu ally</w>
stop ped</w>
Li ber
at en</w>
P ow
ologi st</w>
Phili pp
independ ence</w>
g ers</w>
ak es</w>
ur t</w>
Mo ore</w>
detail s</w>
con tain</w>
s mo
brea king</w>
e ing</w>
th a</w>
inter ested</w>
ent rance</w>
th o
b ell</w>
S cul
Mul der</w>
u ght</w>
main tain</w>
Con feder
Ra dio</w>
Pre mi
cin em
achi ev
supp lies</w>
Ban k</w>
P ho
9 8</w>
par ties</w>
fin ding</w>
insp i
eng ines</w>
bom b</w>
prison ers</w>
cam era</w>
An im
re m
g ol
em ies</w>
19 19</w>
ar t
sta dium</w>
9 1</w>
appe al</w>
Gor don</w>
oo th</w>
neu tr
con qu
domes tic</w>
min al</w>
ma r</w>
B N</w>
op er</w>
ne i
0 5</w>
at om
196 2</w>
as ser
as ks</w>
on line</w>
land fall</w>
h ei
extrem ely</w>
S la
form al</w>
T emp
lo se</w>
enti tled</w>
tri p</w>
win ner</w>
Ad ams</w>
ha ir</w>
col d</w>
c e
Sta dium</w>
ti ful</w>
c us</w>
an ni
gla ss</w>
distinc t</w>
dec ade</w>
9 7</w>
t ings</w>
s ong
con fi
hun dred</w>
stu died</w>
B row
vo ted</w>
por ation</w>
th or
Theat re</w>
N et
investig ation</w>
g ro
G a
bi tion</w>
S ig
193 8</w>
ill a</w>
ev ening</w>
S o</w>
threat ened</w>
ra il</w>
rac es</w>
Wh o</w>
b ought</w>
Gol den</w>
repres ent</w>
ho on</w>
kno ts</w>
B en</w>
l b</w>
adap ted</w>
survi ved</w>
ali ties</w>
N ot
ay ne</w>
9 2</w>
mess age</w>
ow ner</w>
propos al</w>
J ustice</w>
rela tions</w>
dea ths</w>
rou tes</w>
Cor n
tow ns</w>
0 1</w>
In stead</w>
b its</w>
et on</w>
9 3</w>
m ales</w>
v y</w>
re duce</w>
inst alled</w>
sur g
Sum mer</w>
P h
lo t
religi on</w>
pha se</w>
o v</w>
au g
speci fically</w>
P res
du ty</w>
happ y</w>
rec alled</w>
portra yed</w>
er ran
ur ation</w>
comp on
V il
mo bil
ch oo
F al
ann on</w>
G lo
contro versy</w>
ra id</w>
indu strial</w>
cau ses</w>
di sa
bour ne</w>
star ts</w>
produc ts</w>
perf ect</w>
p et
every thing</w>
appro pri
refer ences</w>
cap able</w>
s al</w>
import ance</w>
Gre en
195 6</w>
serv ative</w>
adv oc
arre sted</w>
ar chi
M ir
D om
A ge</w>
Bu il
suff icient</w>
d ating</w>
br inging</w>
ac tress</w>
off ers</w>
wid es
er son</w>
pre ad</w>
Sing les</w>
D S</w>
set tled</w>
equi pped</w>
cor respon
sk in</w>
inv ited</w>
th i
tan ks</w>
bot tom</w>
193 0s</w>
con vo
oper a</w>
st eam</w>
sen al</w>
mov es</w>
Ken ne
Bow l</w>
ru s</w>
T ony</w>
Mc Car
L .</w>
A v
na sty</w>
Egyp t</w>
b ishop</w>
typ ical</w>
nomin ation</w>
spec tive</w>
cros sed</w>
S ant
Chi l
r ong</w>
W ay</w>
fun ds</w>
p age</w>
is ms</w>
D al
sequ ences</w>
T al
193 6</w>
F la
ti er</w>
n on
Cri tical</w>
g an
concer ns</w>
N BA</w>
i us</w>
psy ch
O w
for mu
P ear
incorpor ated</w>
bor ough</w>
S A</w>
recomm ended</w>
au tom
them a
cri me</w>
rema inder</w>
Ab out</w>
lar s</w>
fir m</w>
cust om
No t</w>
g al
T .</w>
spo t</w>
ca p</w>
on e
ag u
An th
am oun
L ev
U TC</w>
IG N</w>
I r
T ar
S am</w>
sho ts</w>
moun tain</w>
i ded</w>
ans as</w>
ob jects</w>
Al an</w>
emb ar
M eg
19 20</w>
com mo
campa ig
R ome</w>
Ham ilton</w>
neigh bor
ex ist</w>
ro ll</w>
compos er</w>
J on
trans fer</w>
appoin tment</w>
vi sible</w>
le tion</w>
inter nal</w>
consi sting</w>
a w</w>
fem ales</w>
promo te</w>
ad mitted</w>
196 1</w>
st a</w>
consider able</w>
Un der
P op
pri ce</w>
dist ur
17 th</w>
we stward</w>
R em
s end</w>
U p</w>
Gam e
po sted</w>
il ers</w>
T un
loo ked</w>
don e
In done
l en</w>
circ um
C er
vi g
ra d
ist an</w>
K ri
stor ms</w>
pl ea
char ges</w>
W y
195 3</w>
exten sion</w>
To day</w>
ph s</w>
inv est
contro versi
k y
Mem orial</w>
us tin</w>
du ties</w>
Kenne dy</w>
st ro
some one</w>
ro of</w>
g one</w>
con su
se as</w>
Mil itary</w>
P lot</w>
C lin
o k</w>
O k
r ural</w>
Sun day</w>
Indi ana</w>
mon um
dis c</w>
or a</w>
How ard</w>
dri ving</w>
dec ades</w>
im ages</w>
Ro ber
R id
chil d
B each</w>
identi ty</w>
Scul ly</w>
Nor we
M edit
h y</w>
occur s</w>
H ot
D ark</w>
li ber
19 30</w>
u de</w>
conn ection</w>
perman ent</w>
vol can
fu n</w>
an sw
ex ter
chall enge</w>
bri gade</w>
bloc k</w>
M ill
asp ects</w>
U r
ish es</w>
in her
Ne ther
fl at</w>
eigh th</w>
ent ering</w>
ac tiv
194 7</w>
pos ite</w>
alle l</w>
tion ing</w>
ro se</w>
r ack</w>
al ed</w>
li ked</w>
Por tu
195 8</w>
concer ned</w>
can al</w>
re ver
cla sses</w>
Con st
let on</w>
Il lin
193 7</w>
no ting</w>
att ached</w>
Sim on</w>
J ord
princi pal</w>
es c
divi sions</w>
t ant</w>
sta ur
re staur
ho tel</w>
di ag
suppor ters</w>
Fi ve</w>
z en</w>
slow ly</w>
po t</w>
S pe
um es</w>
reli ef</w>
recog n
J ac
fo ssi
pri sed</w>
fin als</w>
it age</w>
mu seum</w>
Hit ler</w>
see ing</w>
invol ving</w>
h ang
descri bing</w>
Vi deo</w>
en emies</w>
195 7</w>
Bo y</w>
Ry an</w>
R evolution</w>
ea u</w>
ol dest</w>
W all
ves sels</w>
r ings</w>
B ry
b le
s at
purcha se</w>
equi valent</w>
Sci ence</w>
p ath</w>
actu al</w>
F C</w>
Res earch</w>
D ri
deb ate</w>
Cl evel
op en
od d</w>
ob tained</w>
W ars</w>
dep th</w>
ac re</w>
0 9</w>
theat re</w>
possi bility</w>
claim ing</w>
un a</w>
st ore</w>
reg ularly</w>
re ts</w>
agon ist</w>
mo de</w>
Mag azine</w>
wee k
ch ers</w>
tan k</w>
WW E</w>
ri de</w>
Rol ling</w>
ba sic</w>
jun ction</w>
J as
tim ate</w>
st ration</w>
her o</w>
ec k</w>
popu lations</w>
gl as</w>
cy cle</w>
' d</w>
h an</w>
depar ture</w>
Off ic
wides pread</w>
in stitu
Clevel and</w>
hi ps</w>
ex pres
duc ing</w>
z y</w>
in come</w>
dec line</w>
dem an
ang le</w>
man i
acci dent</w>
0 4</w>
recogni tion</w>
cer tified</w>
u d</w>
do g</w>
commit ted</w>
rou ghout</w>
Th roughout</w>
Illin ois</w>
acc used</w>
K er
o o</w>
me an</w>
l ls</w>
g over
Wee kly</w>
gener ated</w>
deri ved</w>
Ass embly</w>
del eg
Moun tain</w>
0 8</w>
Dou glas</w>
off s</w>
u lation</w>
gi e</w>
An dy</w>
w earing</w>
mea sure</w>
eli gi
progre ss</w>
as sumed</w>
ea fter</w>
sequ el</w>
citiz ens</w>
O reg
195 9</w>
shi p
B eau
p son</w>
equ al</w>
Ar senal</w>
ho sted</w>
f ine</w>
ear th
retur ns</w>
Af ter
intellig ence</w>
arm or</w>
stan ds</w>
e on</w>
Gol d
ici de</w>
den ied</w>
anim ated</w>
tor ies</w>
Rec ording</w>
a bu
et ry</w>
erran ean</w>
temp le</w>
liter ary</w>
Fam ily</w>
F un
termin us</w>
t ell</w>
s man</w>
K evin</w>
K ent</w>
thous ands</w>
su spec
ret t</w>
ab or
Norwe gian</w>
195 4</w>
20 s</w>
ou ra
depar tment</w>
a str
C at
Al bert</w>
195 5</w>
Medit erranean</w>
the d
Beat les</w>
e ds</w>
inter c
Bru ce</w>
wick ets</w>
li c</w>
Mat t</w>
la tive</w>
Rog er</w>
Mo der
B S</w>
dem and</w>
Stan ley</w>
E duc
Sp ace</w>
defin i
Bar t</w>
con sul
con sci
su peri
dru g</w>
IS BN</w>
strong ly</w>
Thi rd</w>
regi onal</w>
par allel</w>
ad ing</w>
v ar
I .</w>
Ham p
no on</w>
ll a</w>
Y our</w>
mic ro
l ying</w>
circu lation</w>
Direc tor</w>
sa iled</w>
in et</w>
Mal ay
si p
In v
passeng ers</w>
t ren
Ad am</w>
jour ney</w>
con vic
az z</w>
clu bs</w>
Bri stol</w>
alter n
fre edom</w>
emer ged</w>
b ru
16 th</w>
ab s
ju ries</w>
poli s</w>
B ou
pl om
M en
thir ty</w>
er ies</w>
si as
Ju st</w>
hy po
comman ded</w>
coun ter</w>
l ated</w>
Don ald</w>
pa th
al leg
0 6</w>
histor ic</w>
fi ghter</w>
d ding</w>
ent ally</w>
replac ement</w>
Phili p</w>
co sts</w>
be gun</w>
down town</w>
oper ate</w>
assi stance</w>
a ren
N ar
de struction</w>
J eff
res emb
b eral</w>
Mexic an</w>
fe eling</w>
y outh</w>
row ing</w>
formu la
d son</w>
attribu ted</w>
L es
tel ling</w>
b bed</w>
spea king</w>
s we
ri f
Chan nel</w>
G .</w>
ag er</w>
T en</w>
Wi thin</w>
f itted</w>
b lu
Kore a</w>
e o</w>
med al</w>
ou ter</w>
fin ishing</w>
appear ing</w>
st ayed</w>
dri ven</w>
13 th</w>
sc ra
man ner</w>
im m
g ros
Ric h
Lis a</w>
Ad ditionally</w>
un usual</w>
shoo t</w>
ste p</w>
proper ties</w>
j am
establi shment</w>
an ian</w>
F ame</w>
rec overed</w>
f tw
ra tions</w>
op posite</w>
Pro ject</w>
volun te
eg et
T enn
fil e</w>
g ain
ap ar
jo ining</w>
atmo sphere</w>
A D</w>
wor k
t ask</w>
er ly</w>
effec tively</w>
bre ed</w>
195 2</w>
reg iment</w>
disc overy</w>
M un
occa sionally</w>
chor us</w>
j ac
cla ssic</w>
g arri
ar d
pre d
d ying</w>
b la
e ed</w>
Sim il
Rob inson</w>
s ounds</w>
respon sibility</w>
le e</w>
hon or</w>
pre dec
comp letion</w>
as e</w>
T ech
Oreg on</w>
classi fied</w>
Me dia</w>
meth ods</w>
b les</w>
app lic
An d
193 3</w>
S ti
F I
D NA</w>
keep ing</w>
Ar ound</w>
wil d</w>
mater ials</w>
Un like</w>
Tel evision</w>
per su
Som er
orig in</w>
v ul
ph one</w>
ar ch</w>
R ed
Con struction</w>
war ning</w>
streng th
I ra
H ind
on ing</w>
gir ls</w>
t ty</w>
ag as
ac commo
N u
Fre der
E s
prov ince</w>
Mar i
survi ving</w>
er ial</w>
attrac ted</w>
Nor man</w>
D ig
dis sip
Nel son</w>
sic ally</w>
na tions</w>
att ers</w>
gg ed</w>
Haw ai
at y</w>
J an
differ ences</w>
ri ce</w>
consi der</w>
Mur ray</w>
lea gues</w>
D own</w>
lo g
d ens</w>
con gre
193 5</w>
Bo s
at i</w>
19 10</w>
pass age</w>
bo ys</w>
J un
F ac
abo ard</w>
ab led</w>
S ab
ch ur
sequ ently</w>
associ ation</w>
se es</w>
clim ate</w>
re ality</w>
fa ir
wea k</w>
er up
eg o</w>
Ar gent
rat ings</w>
o ke</w>
con fu
nei ther</w>
el even</w>
Pat rick</w>
ho t</w>
am ing</w>
Premi er</w>
L enn
mas sive</w>
jo int</w>
F ron
G ran
v in</w>
Ar ti
pain ted</w>
195 1</w>
k ish</w>
194 9</w>
ti le</w>
separ ated</w>
cru iser</w>
con fron
s and
desi re</w>
Tor onto</w>
he at</w>
classi fication</w>
s or</w>
b o</w>
ra ise</w>
vehi cle</w>
cor ner</w>
w a</w>
gra v
anc est
N ations</w>
re d
M en</w>
se emed</w>
Byz antine</w>
K il
sh ark</w>
vo tes</w>
pic ture</w>
battles hips</w>
fra g
ographi c</w>
mem ory</w>
Swe den</w>
bro ad</w>
requ ested</w>
hop ed</w>
M organ</w>
seg ment</w>
restor ed</w>
mov ements</w>
N C
K ong</w>
un t</w>
s ale</w>
ur s</w>
quar ter
histor ians</w>
Franc is</w>
lin k</w>
acc ept</w>
. com</w>
Nether lands</w>
Pri or</w>
Mat the
st ea
fun ding</w>
K enn
touch down</w>
t z</w>
ir a</w>
W ill</w>
difficul ty</w>
De ath</w>
se where</w>
fic ial</w>
de emed</w>
convinc ed</w>
bas ketball</w>
techn ical</w>
communi ties</w>
Mo on</w>
Eng ine
cer tain
Bu sh</w>
A k
ri val</w>
Sh ar
Nic hol
Gir l</w>
thed ral</w>
rela tive</w>
program me</w>
0 3</w>
met er</w>
P rin
g row</w>
R ay</w>
Jew s</w>
Fore st</w>
ser i
premi ere</w>
c avalry</w>
del ayed</w>
Je ff</w>
p ac
co st
C E</w>
th ri
batt ing</w>
inspi ration</w>
dre ds</w>
sol ution</w>
other wise</w>
great ly</w>
val u
anni versary</w>
in juries</w>
Gu ar
accoun ts</w>
D ow
v in
spo ke</w>
loy d</w>
surr ounded</w>
vi de
rhy th
pit ch</w>
ti ous</w>
pra ise</w>
pen alty</w>
nee ds</w>
tis m</w>
f at
assi st</w>
Cam p
re ments</w>
patter n</w>
J im
ben e
De an</w>
draw ing</w>
d al</w>
commis sion</w>
en ses</w>
ri st</w>
li p
A .
er to</w>
destro y</w>
strateg y</w>
il er</w>
th rone</w>
ab sor
B run
c ard</w>
ent ers</w>
al co
0 2</w>
P C</w>
poli tici
le gen
docum entary</w>
Ma h
musici ans</w>
ath let
architec ture</w>
can did
cros ses</w>
di plom
Mar ine</w>
dem oli
Wel sh</w>
h ope</w>
f alling</w>
Temp le</w>
Jord an</w>
Croati an</w>
An ne</w>
L e</w>
respec t</w>
f alls</w>
categ ory</w>
al u
R h
form ally</w>
ogra pher</w>
invol vement</w>
en sure</w>
deter mine</w>
n one</w>
wor st</w>
dis missed</w>
D e</w>
p it</w>
g al</w>
cont est</w>
att end
12 th</w>
war m</w>
sh ell</w>
minist er</w>
C ab
t ted</w>
pre y</w>
formula ></w>
< formula></w>
rem n
Thom pson</w>
l ets</w>
adap tation</w>
w ich</w>
ni c</w>
W ood
m al
air port</w>
Pu erto</w>
Ar men
Kel ly</w>
e ously</w>
ch ampion</w>
S ound</w>
G old</w>
survi v
g are
H ere</w>
tra ined</w>
some what</w>
resour ces</w>
inter ests</w>
for cing</w>
s ort</w>
sc ape</w>
fic tional</w>
sch eme</w>
immedi ate</w>
li brary</w>
ad ults</w>
tr a</w>
presid ential</w>
Fur ther</w>
B ay
z er
conduc t</w>
All en</w>
pre gn
Rus sell</w>
sig ns</w>
att end</w>
igg est</w>
Au th
gu s</w>
Ly n
leg s</w>
d ale</w>
fac es</w>
dep loyed</w>
techni ques</w>
sub marine</w>
figh ters</w>
T ig
M es
star red</w>
F .</w>
vir tu
elec tions</w>
ar ing</w>
pol y
differ ence</w>
modi fied</w>
sev er
classi cal</w>
passeng er</w>
comm em
co ordin
A re
B ishop</w>
sugg est</w>
stre ets</w>
nin th</w>
rap id</w>
r ats</w>
Hung arian</w>
' ll</w>
D E</w>
behavi or</w>
Si x</w>
Comm and</w>
part ner</w>
medi eval</w>
me ets</w>
K ra
distribu ted</w>
19 13</w>
Cent re</w>
fru it</w>
attac king</w>
review er</w>
N BC</w>
chem ical</w>
an n</w>
A C</w>
premi ered</w>
pow ered</w>
ec tor</w>
ak i</w>
N FL</w>
w as
t une</w>
el se</w>
mo tor
abs ence</w>
Th us</w>
A li
mea sures</w>
P il
paren tly</w>
favor ite</w>
b in
engine er</w>
arrang ement</w>
acad emic</w>
t ter</w>
Par ker</w>
E y
Con stitution</w>
b ic</w>
al ised</w>
C in
controversi al</w>
St ew
mis sion
im pressed</w>
all ery</w>
S in
r ons</w>
L im
un g</w>
ig n
com o
P ower</w>
inter ior</w>
d or</w>
fir ing</w>
domin ated</w>
W right</w>
Bat man</w>
ch ant</w>
ac id</w>
lan ded</w>
conclu sion</w>
lea ds</w>
h em
Car ter</w>
og s</w>
fav or</w>
be an</w>
V ari
19 26</w>
res ear
Sam u
sh e
tim s</w>
ron ze</w>
character istics</w>
Com mon
si ege</w>
it ter</w>
B om
ic ed</w>
fac ility</w>
encoura ged</w>
eg gs</w>
fi re
W is
19 27</w>
reti rement</w>
after wards</w>
Ara b</w>
cre dit</w>
continu ing</w>
Ro se</w>
Li brary</w>
glo bal</w>
col ony</w>
J ane</w>
A la
temper atures</w>
gi ant</w>
fashi on</w>
conv ection</w>
mun ici
every one</w>
bi ography</w>
ow ners</w>
k ingdom</w>
S av
tre ated</w>
19 21</w>
we igh
suff ering</w>
ol itan</w>
in formed</w>
Al f
sec ured</w>
onom y</w>
legis lation</w>
bel t</w>
ma d</w>
ea sy</w>
fac ing</w>
em ented</w>
scre en
lay er</w>
rec i
St ev
F is
Educ ation</w>
E ric</w>
sty les</w>
Th or
em et
believ es</w>
P ak
193 4</w>
th ered</w>
m al</w>
fac tors</w>
attemp ting</w>
auth ors</w>
f arm</w>
Po lice</w>
def ended</w>
sh i</w>
cra sh</w>
stand ards</w>
resc ue</w>
dis ci
di er</w>
Pal ace</w>
H eal
ju dge</w>
habit at</w>
depic ted</w>
V .</w>
Comman der</w>
Ma x</w>
Hou ston</w>
19 12</w>
battles hip</w>
w ings</w>
Mor ris</w>
Feder al</w>
me dic
any one</w>
e a</w>
Wh e
th ic</w>
long est</w>
nar row</w>
im mig
f ar
ar chae
Ro ss</w>
st e</w>
sic s</w>
go sla
carri er</w>
ac knowle
Gre g
p y
d am</w>
Mast er</w>
b iggest</w>
au to
Swe dish</w>
For d</w>
un successful</w>
B ell</w>
represent ing</w>
graphi cs</w>
Common wealth</w>
w ins</w>
cha irman</w>
1 10</w>
di men
L ate</w>
ran e</w>
ph ra
m ate</w>
O ut</w>
9 00</w>
Mar ia</w>
out break</w>
mer ged</w>
le tic</w>
es sed</w>
ch y</w>
M L
D ur
promis e</w>
Res er
Mer c
193 2</w>
M ain</w>
ha u
Indi ans</w>
nic kn
ell o</w>
ap parent</w>
Pi er
chang ing</w>
sig ning</w>
RA AF</w>
P in
t one</w>
har mon
sho p</w>
ro it</w>
emet ery</w>
K night</w>
st el
achi eve</w>
dic tion</w>
bo y
Nap ol
relea ses</w>
el sen</w>
Sant a</w>
col li
Cor poration</w>
Simp son</w>
en cies</w>
m ation</w>
War ner</w>
n ea
b rain</w>
T it
form erly</w>
Yu gosla
Jas on</w>
Anth ony</w>
poin ted</w>
es h</w>
clo ser</w>
V an
moder ate</w>
lim it</w>
emer gency</w>
fes tival</w>
n ings</w>
canc er</w>
Con tin
W eb
G ood</w>
tri als</w>
str ate</w>
de ed</w>
B I</w>
ques tions</w>
b one</w>
W ea
Ber lin</w>
journ alist</w>
influ ential</w>
fac tory</w>
b ol
mil i
ang er</w>
s oul</w>
disp lac
Croati a</w>
v eter
s ley</w>
beli ef</w>
at us</w>
Mis si
Det roit</w>
ni ghts</w>
n au
ali gn
nov els</w>
con stant</w>
S co
colon ial</w>
success or</w>
influ ences</w>
emo tional</w>
Ho spital</w>
nar rative</w>
def end</w>
J enn
W ood</w>
G aga</w>
re min
ap s</w>
R AF</w>
19 29</w>
su itable</w>
cour ts</w>
hun ting</w>
S hel
19 11</w>
s in</w>
experi ences</w>
ass ass
p lo
wat ching</w>
fac tor</w>
conc ern</w>
discus sed</w>
v .</w>
li sts</w>
ap parently</w>
instru ments</w>
execu ted</w>
co ins</w>
ap art</w>
v eget
ma thema
vic tims</w>
in y</w>
C ateg
co de</w>
Sp ears</w>
gradu ate</w>
appro val</w>
P lat
ob ject</w>
Cla ss</w>
1 30</w>
tem por
193 1</w>
offic es</w>
child hood</w>
bel ong
def end
bo x
sp her
Jes us</w>
19 22</w>
K al
ph en
ow a</w>
dru ms</w>
R and
Y an
f ro
Le on
L and</w>
o on</w>
br and</w>
R ain
Mel bourne</w>
norm ally</w>
li am
Ni elsen</w>
Christ op
woo den</w>
sk ills</w>
ma inst
exist ed</w>
ach ment</w>
L ast</w>
u tili
res ent
hear ing</w>
X box</w>
Isra el</w>
alco ho
Net work</w>
A sian</w>
h n</w>
v als</w>
hun dreds</w>
col our</w>
ex posed</w>
w on
Col or
15 th</w>
requ ire</w>
re signed</w>
J ay</w>
at t</w>
V ice</w>
a p</w>
w er</w>
sy mp
g ay</w>
Bul g
Ber n
S ports</w>
eu r</w>
tal k</w>
roman tic</w>
reve als</w>
fle w</w>
ci ally</w>
P ope</w>
N evertheless</w>
b ay</w>
Clin ton</w>
ho sti
Categ ory</w>
Bel gi
P un
em ble</w>
ad d</w>
ul ate</w>
en thu
C ari
Moder n</w>
relation ships</w>
prev ented</w>
M ol
bom bar
diag no
Stew art</w>
prin ted</w>
pre ferred</w>
10 th</w>
substan tial</w>
impro v
chap ter</w>
anim ation</w>
En d</w>
p lus</w>
cha in</w>
Musli m</w>
rac ing</w>
pu shed</w>
la bel
A lex</w>
re l</w>
lin ked</w>
i eld</w>
tim ore</w>
lo como
langu ages</w>
foo tage</w>
oppon ents</w>
happ ened</w>
exc eption</w>
T ower</w>
ther eafter</w>
b in</w>
repor tedly</w>
ann y</w>
conc ur
US A</w>
N um
k id
li sting</w>
inten se</w>
Princ ess</w>
on ym
C R</w>
w ick</w>
d anc
fam ili
es tion</w>
Tur kish</w>
dev ice</w>
I ron</w>
not ably</w>
ld n</w>
em ing</w>
St ory</w>
si ans</w>
repe ated</w>
el t</w>
R ad
vis itors</w>
rac ks</w>
sk i
mor al</w>
ag ents</w>
Sar ah</w>
Lenn on</w>
surren der</w>
po et</w>
Braz il</w>
employ ees</w>
lear n</w>
B ab
Gre ece</w>
Austri a</w>
Gen er
ext inc
li qu
dri ver</w>
Albu ms</w>
Win ter</w>
soli d</w>
retre at</w>
p ounds</w>
l ature</w>
w rec
ra ft</w>
depar ted</w>
Bal timore</w>
particip ate</w>
Ev ans</w>
po etry</w>
favor able</w>
form at</w>
di alogue</w>
ear ning</w>
to x
st ab
te eth</w>
t an</w>
t all</w>
ext ent</w>
detail ed</w>
au dio</w>
es cor
R on
Ar n
hu ge</w>
Al ong</w>
lear ning</w>
t esting</w>
Writ ing</w>
Ho ly</w>
Color ado</w>
uni verse</w>
resid ential</w>
inst ance</w>
fa st
peri ods</w>
cru isers</w>
L ane</w>
wal k</w>
h anna</w>
bri dges</w>
pic ked</w>
des er
Sul li
n ur
batt les</w>
an ch
adver ti
Ini tially</w>
v ac
Samu el</w>
tom s</w>
end ment</w>
Tech n
L ei
thous and</w>
P on
A y
á n</w>
t ests</w>
F oundation</w>
ap preci
B and</w>
after noon</w>
rop olitan</w>
ta ught</w>
convo y</w>
T im</w>
Sulli van</w>
es n</w>
exp ec
entu res</w>
R A</w>
et ary</w>
b our</w>
No w</w>
s ear
abo li
19 00</w>
territ ories</w>
gen etic</w>
N ev
tic ed</w>
Play er</w>
ó n</w>
vide os</w>
review ers</w>
employ ment</w>
bal la
J r</w>
g rown</w>
f ounder</w>
bal ance</w>
li day</w>
ei l</w>
W restling</w>
19 28</w>
val ley</w>
el a</w>
Hav ing</w>
ves sel</w>
ar ts</w>
negoti ations</w>
f ea
O l
diam eter</w>
c ali
F air
isol ated</w>
14 th</w>
Freder ick</w>
Somer set</w>
in ity</w>
Mar io</w>
s l
conven tion</w>
encoun tered</w>
R ow
ma tic</w>
g oods</w>
bas es</w>
19 25</w>
spea k</w>
S ome
or ous</w>
Rel ease</w>
with drew</w>
techni que</w>
te amm
simul tan
my th
lo west</w>
j unior</w>
re am</w>
K am
the tic</w>
schol ars</w>
ini an</w>
c overs</w>
y d</w>
up graded</w>
por tions</w>
ju di
D aw
ul es</w>
o tic</w>
Jour nal</w>
Gi ants</w>
engine ering</w>
en ess</w>
An na</w>
occup ation</w>
specim ens</w>
Mi ami</w>
Ang lo</w>
organiz ations</w>
cover ing</w>
L en
Harri s</w>
C op
C z
jac ent</w>
Cari b
wea pon</w>
Se attle</w>
B ack</w>
mat ure</w>
ic op
par tly</w>
fil l</w>
domin ant</w>
3 D</w>
19 24</w>
spir it
indic ate</w>
ban ks</w>
G od
sp ending</w>
ox y
cri sis</w>
Ch ampionships</w>
i k
Chri st</w>
ea stward</w>
Mar shall</w>
pro hi
car bon</w>
Gil bert</w>
trav eled</w>
re au</w>
en z
where as</w>
mem orial</w>
re form</w>
z o
par tially</w>
gh ters</w>
ra rely</w>
fre sh</w>
desig ner</w>
ref ers</w>
f ear</w>
Co oper</w>
tur rets</w>
do esn</w>
mu sc
M idd
19 20s</w>
pl ed</w>
R al
week end</w>
ran king</w>
Tre aty</w>
Hor se</w>
I owa</w>
ob s</w>
o bli
han ded</w>
comp il
p le
D an</w>
plat inum</w>
go al
fin ale</w>
ell ite</w>
critic ised</w>
comp ete</w>
sh oul
A lab
per mission</w>
in er</w>
an ticip
adv ice</w>
De sign</w>
ma inten
mainten ance</w>
li cations</w>
ti fication</w>
te acher</w>
Bu dd
dre ss</w>
difficul ties</w>
sta tis
poli cies</w>
R ap
Alab ama</w>
person ality</w>
ordin ary</w>
friend ly</w>
frequ ent</w>
chan nel</w>
addre ss</w>
ff s</w>
For ces</w>
re new
F ire</w>
win dow</w>
represent ative</w>
im prison
environ mental</w>
L ov
w ear</w>
squ ad</w>
car to
u ss</w>
recor dings</w>
pit ched</w>
id en</w>
ex ac
Carib bean</w>
exc ell
comm ents</w>
re move</w>
G un
rec ur
ali zation</w>
gra ph</w>
A S
under standing</w>
re con
mag ne
all en</w>
concer ts</w>
extre me</w>
Yan ke
y l</w>
mainst ream</w>
la bor
h att
gre es</w>
cap it
se ats</w>
l st</w>
Sy m
Char lie</w>
19 23</w>
wil ling</w>
k m2</w>
c ket</w>
ex ec
Pro duc
spi rit</w>
p ine</w>
N E
Min nes
g li
f ishing</w>
Can al</w>
win dows</w>
ter ing</w>
promp ted</w>
pan ts</w>
sub si
hou sing</w>
D C</w>
im pres
div or
B ad
v is</w>
are n</w>
h at
descri be</w>
Th en</w>
m .</w>
h ockey</w>
dy nam
prin t</w>
V is
Minist ry</w>
destro yers</w>
e or
R ay
sw im
an a
garri son</w>
I an</w>
Ro y
d u</w>
exam ples</w>
pro to
na tionally</w>
16 0</w>
chur ches</w>
end or
cor por
cre te</w>
Hung ary</w>
Gu ard</w>
j us
minim um</w>
wor e</w>
p ick</w>
exp ensive</w>
Naz i</w>
trav elled</w>
so il</w>
re pair</w>
bom bers</w>
viol ent</w>
sh ear</w>
acc ept
Law rence</w>
dy nasty</w>
N ick</w>
lu c
ad jacent</w>
a j
fa ir</w>
Ch ronic
11 th</w>
in aug
mp tion</w>
inten tion</w>
displa yed</w>
clo sing</w>
desig nation</w>
Or gan
inc es</w>
Ret ur
Australi ans</w>
Yor k
Belgi um</w>
cred its</w>
Tre k</w>
cre ator</w>
symbo l</w>
p ack
cre ative</w>
Par t</w>
medi um</w>
in di
tribu te</w>
collap se</w>
Di ego</w>
R ev
w ast
e sis</w>
prot agonist</w>
pl ate</w>
ong st</w>
Bu ff
A S</w>
val ues</w>
appropri ate</w>
de al
Ben jam
ass emb
B ob
Shak esp
mom ents</w>
lo s</w>
g by</w>
cri minal</w>
Ro s
cha ir</w>
sup posed</w>
p ton</w>
ea ble</w>
adv is
pos session</w>
inter esting</w>
fo rec
n i</w>
Town ship</w>
t ally</w>
ali ons</w>
Viet nam
K at
na issance</w>
fla g
D ance</w>
dis rup
se em</w>
s ings</w>
in al</w>
Sen ator</w>
b id</w>
Coun try</w>
Chil dren</w>
te en
rad ar</w>
ak a</w>
Gar den</w>
villa ges</w>
th row</w>
scienti sts</w>
restric ted</w>
ologi sts</w>
T rack</w>
du l
dol lars</w>
L ind
An dre
treat y</w>
190 5</w>
190 8</w>
Christop her</w>
scrip tion</w>
r ounds</w>
vic tories</w>
survi ve</w>
g as
as c
Med al</w>
pain tings</w>
ot t</w>
elimin ated</w>
per cent
bo ar
Leg acy</w>
Guar dian</w>
si ght</w>
bo t</w>
2 1st</w>
promis ed</w>
f th</w>
190 9</w>
el i</w>
ac e
rec re
el sewhere</w>
Vietnam ese</w>
newsp apers</w>
en cing</w>
ari st</w>
w aves</w>
sur prise</w>
re gu
in nov
el er
see king</w>
Roo sev
D ol
A I
pos ses
num bered</w>
arri ving</w>
arm ament</w>
S lo
pur poses</w>
hel ping</w>
at tered</w>
Sta ff</w>
H ockey</w>
per si
k ets</w>
g ates</w>
B eg
under stand</w>
su icide</w>
k es
hei m</w>
bir th
an th
Minnes ota</w>
sur vey</w>
schedu le</w>
disp ute</w>
Benjam in</w>
uni tion</w>
pla in</w>
V I</w>
Su p
occa sions</w>
w ine</w>
sa fe</w>
es sive</w>
Gram my</w>
fav our</w>
align ment</w>
benef it</w>
app ed</w>
Man hatt
ear th</w>
ab sol
strugg le</w>
c ked</w>
So on</w>
Inter state</w>
F ra
Wal ker</w>
sp er
ig nor
P y
extr at
Frank lin</w>
Des cri
st al
h ur
c ryst
it z
er n
W ing</w>
ti fications</w>
it z</w>
ec raft</w>
pre served</w>
la ge</w>
a qu
gar den</w>
Matthe w</w>
de grees</w>
Manhatt an</w>
p in
Roosev elt</w>
qu anti
colum n</w>
fa ith</w>
bo ards</w>
un like</w>
phy sici
assi sted</w>
Da ve</w>
se ek</w>
intensi fied</w>
B ros
la m</w>
ev il</w>
h ear</w>
amoun ts</w>
disci pl
comp eted</w>
190 7</w>
public ly</w>
min i
en h
al lies</w>
Pen insula</w>
Mar gare
ther ine</w>
re sumed</w>
T ol
1 40</w>
candid ates</w>
t ments</w>
preci pit
pa ired</w>
fil ed</w>
em peror</w>
electr onic</w>
P hy
B enn
Al ber
é e</w>
we dding</w>
ssi pp
pil ots</w>
surviv ors</w>
K ansas</w>
F light</w>
func tions</w>
el ings</w>
z i
W a
Mar s</w>
nec k</w>
ma p</w>
dang erous</w>
ran ts</w>
communic ation</w>
Indu stry</w>
beau tiful</w>
c iting</w>
quali fied</w>
k ick</w>
Po li
sup pl
ho sp
evol utionary</w>
Missi ssipp
H ead</w>
organ ised</w>
im possible</w>
ha w
as king</w>
sub mitted</w>
fore sts</w>
te aching</w>
or ly</w>
fr ame</w>
cop y</w>
t ten</w>
defe ating</w>
tor n
ri d</w>
An ton
con crete</w>
Mon tre
M ore
il ian</w>
fin ed</w>
w rong</w>
mul ti</w>
hel icop
bac king</w>
Port land</w>
W all</w>
assi sts</w>
Buil ding</w>
th ly</w>
di ver
c lin
Car l</w>
M itch
oppon ent</w>
Hot el</w>
gra phy</w>
f oundation</w>
p ron
consist ent</w>
busin esses</w>
indu stri
Dig ital</w>
oun ced</w>
ro ad
be aten</w>
H ut
k ne
fif teen</w>
US D</w>
R on</w>
US S</w>
vo iced</w>
symp toms</w>
mon t</w>
b rick</w>
M anu
G ab
S wit
gran t</w>
dru m
be half</w>
w ood
um ber
percent age</w>
Are a</w>
h ull</w>
agricul tural</w>
ot yp
Na tive</w>
L ong
Gu y</w>
F our
argu ment</w>
regi stered</w>
situ ated</w>
shel ls</w>
ac compli
Tenn es
Mor ri
sub jects</w>
for ty</w>
t ney</w>
Phi l
ligh ting</w>
ad d
ee ding</w>
aff ili
Lou isi
stan ces</w>
s ank</w>
amm unition</w>
R av
I mp
E mer
Con tro
gg ing</w>
be ach</w>
organ isation</w>
ar rest</w>
H op
re pairs</w>
a than</w>
recogn ised</w>
T rin
shi r
resol ution</w>
Kh an</w>
Alex and
V inc
rail road</w>
V II</w>
ran ks</w>
lo aded</w>
in habit
Hal o</w>
th an
F ro
co ol
An n</w>
disa ster</w>
t ap
attend ance</w>
qu ick</w>
house hold</w>
S P
Pat ri
J ar
f led</w>
Revi ew
wor n</w>
restaur ant</w>
li eutenant</w>
f lights</w>
c ad
aw a</w>
p ig
bac ks</w>
audi ences</w>
Mic hel
Egyp tian</w>
y on</w>
fe elings</w>
T ak
Sp ring
t enth</w>
. m.</w>
mobil e</w>
m ates</w>
A ff
3 60</w>
under ground</w>
susp ended</w>
deli ber
conven tional</w>
Camp bell</w>
bloc k
vi er</w>
aff airs</w>
hon our</w>
Dep res
P ru
Mississipp i</w>
bu y</w>
Tennes see</w>
Th rough</w>
thre w</w>
tar gets</w>
earth qu
Con nec
B e</w>
190 6</w>
Louisi ana</w>
ten ed</w>
fi res</w>
fun eral</w>
cerem on
Po p</w>
gen e</w>
eth nic</w>
aff air</w>
Fron t</w>
mea sured</w>
C rown</w>
instru mental</w>
po orly</w>
oper ational</w>
Montre al</w>
thin king</w>
ar c
C an</w>
190 4</w>
ex it</w>
enthu sias
el le</w>
docum ents</w>
compil ation</w>
S wi
onym ous</w>
Pal est
aim ed</w>
s au
Margare t</w>
repres ents</w>
sour i</w>
Philipp ines</w>
Hear t</w>
Depres sion</w>
stat ue</w>
her o
Cri tics</w>
oxy gen</w>
or bit</w>
es sing</w>
L ow
R ace</w>
Mis souri</w>
Har v
tun nel</w>
op hi
com for
I sa
om en
tempor arily</w>
explo sion</w>
dru m</w>
Histor ic</w>
n ell</w>
I A</w>
et ings</w>
alli ance</w>
Rep resent
K im</w>
prof essor</w>
li fe
spon s
ep tions</w>
B illy</w>
on ian</w>
men tion</w>
arm ored</w>
op tion</w>
cre ws</w>
st ran
p ro</w>
di ary</w>
Bor n</w>
replac ing</w>
s k</w>
collabor ation</w>
pro per</w>
superi or</w>
fif ty</w>
B ang
sec tor</w>
Blu es</w>
Ar chi
op h
na vi
ine a</w>
w rest
off ering</w>
d an</w>
H ong</w>
z ona</w>
enter tainment</w>
ay ing</w>
ph ony</w>
hol e</w>
Lab our</w>
resid ence</w>
prepar ation</w>
eng agement</w>
K .</w>
M r
F em
ographi cal</w>
Heal th</w>
refl ected</w>
Independ ent</w>
ven ues</w>
sen si
re luc
p ap
cy lin
pri me</w>
War ren</w>
W ater</w>
D est
ra ge</w>
restor ation</w>
pre h
f ound
U E
F ree</w>
tour ing</w>
tor al</w>
ag ree</w>
Gi b
ro ots</w>
ri vers</w>
o po
complet ing</w>
am ongst</w>
re built</w>
in land</w>
sugg esting</w>
Al li
mis si
e ties</w>
flan k</w>
e ded</w>
Ad minist
ten d</w>
ther more</w>
ari ties</w>
S au
Gra ham</w>
v a
ther ap
stri p</w>
ear e</w>
det ail</w>
R ac
l i</w>
in n</w>
famili ar</w>
canc elled</w>
b ear</w>
direc tors</w>
B un
Alf red</w>
ten sion</w>
cover age</w>
Mitch ell</w>
s u</w>
over e
loo ks</w>
N atur
sp in</w>
pul led</w>
escap ed</w>
dec ides</w>
at edly</w>
lac ked</w>
fix ed</w>
bloc ks</w>
alter ed</w>
Wat er
T an
Lu c
Cu ba</w>
was n</w>
dram atic</w>
part nership</w>
min ing</w>
Pro v
ey s</w>
E ag
hor ror</w>
f allen</w>
di son</w>
Mu ch</w>
C ros
C ob
sa il
distingu ished</w>
r at</w>
moun tains</w>
um n</w>
ow nership</w>
cl early</w>
T on
patter ns</w>
lan ders</w>
am p</w>
Pho en
D .C.</w>
r or
argu es</w>
al o</w>
transi tion</w>
c ous
n ered</w>
Fil es</w>
form ers</w>
ad equ
nu cle
car go</w>
s na
ox ide</w>
d den
F ul
G o</w>
oc ean</w>
el and</w>
Ari zona</w>
sa ved</w>
ri sing</w>
Op en</w>
step s</w>
per spective</w>
fa ster</w>
eg a</w>
Per sian</w>
Gu ide</w>
s sing</w>
j ustice</w>
g .</w>
colon ies</w>
character ized</w>
Wor ks</w>
Indi es</w>
man eu
dro ve</w>
arti stic</w>
To ky
spo ken</w>
ri ders</w>
contribu tions</w>
Satur day</w>
sun g</w>
lic ated</w>
keep er</w>
arch y</w>
F el
de pos
cul ated</w>
fast est</w>
r as</w>
play offs</w>
l or
Mic ro
administ rative</w>
remn ants</w>
R ang
Dy lan</w>
th es</w>
ni ght
patro l</w>
cul t</w>
cat ch</w>
in ha
ex trac
bi e</w>
str ate
D eb
st ores</w>
for c
bound ary</w>
D omin
occa sion</w>
ho sts</w>
ad rons</w>
ri val
or al</w>
vi ous</w>
sever ely</w>
N ag
ran ging</w>
mili tia</w>
institu tions</w>
ap ti
reg ard</w>
j o</w>
ali en</w>
Tam il</w>
K y
p are</w>
c ans</w>
bad ly</w>
str ing</w>
i ding</w>
exc av
con servative</w>
cl er
Mar ie</w>
fac ts</w>
dep ending</w>
liam entary</w>
la hom
ec ho
Confeder ate</w>
re ll</w>
V ar
p um
mem ber
ep ing</w>
distinc tive</w>
Wil hel
T ha
O K</w>
bow ling</w>
S even</w>
R ach
tw in</w>
sw it
h l</w>
expla ins</w>
Bu reau</w>
c rown</w>
T O</w>
constitu tional</w>
pun k</w>
b ronze</w>
Ok lahom
ra ti
id en
compar ison</w>
18 0</w>
loo p</w>
sk et
alle ged</w>
par ish</w>
demon strated</w>
Bros .</w>
u als</w>
prac tices</w>
mun d</w>
con dem
bas sad
Hea d
H il
H em
po ems</w>
dec om
cop e</w>
Fri ed
E con
inhabit ants</w>
contro ls</w>
arri ve</w>
W ag
flag ship</w>
si sters</w>
i b
Mur phy</w>
fun d</w>
ver te
sp end</w>
cor rup
w ants</w>
j azz</w>
expla in</w>
ag ency</w>
wa iting</w>
u se
Har vey</w>
zer land</w>
sol ar</w>
fe ed</w>
Swit zerland</w>
wi der</w>
for tun
evol ved</w>
U N</w>
fav our
the ater</w>
spo tted</w>
min es</w>
th el
circu it</w>
elec tro
applic ation</w>
a tically</w>
wh el
the sis</w>
comm ent
Her o</w>
Econ om
Broad way</w>
re aches</w>
vul ner
north ward</w>
fre sh
t man</w>
ow ed</w>
surg ery</w>
p ace</w>
fi es</w>
artic les</w>
acc eler
190 1</w>
su e</w>
re b
in spec
fac tion</w>
S at
Gu il
sat ellite</w>
ter ri
Oklahom a</w>
tru th</w>
sk ir
sub species</w>
scrip ts</w>
Austri an</w>
nomin ations</w>
hel ps</w>
ga p</w>
sla ves</w>
c oo
s now</w>
mor t
commem or
predic ted</w>
Feder ation</w>
E dge</w>
ist ry</w>
ch i</w>
al um
Ira q</w>
prote in</w>
pre pare</w>
ly n</w>
house holds</w>
E d</w>
pal ace</w>
p m</w>
hea ding</w>
adv enture</w>
f s</w>
Del aware</w>
w an</w>
stor age</w>
pol l</w>
at tained</w>
190 2</w>
G ary</w>
youn g
carri ers</w>
Pro f
190 3</w>
u ality</w>
lan es</w>
eng age</w>
G ood
me at</w>
b lin
Li thu
lin ing</w>
L at
Shakesp eare</w>
Origin al</w>
ri x</w>
ch ess</w>
An n
st ones</w>
monum ent</w>
fal se</w>
exhi bition</w>
shi pping</w>
repe atedly</w>
St ock
predec essor</w>
ph a</w>
lab or</w>
lin er</w>
ess ential</w>
Les lie</w>
em en</w>
A BC</w>
pea king</w>
for ma
philosop hy</w>
pre tty</w>
excell ent</w>
or an
mo tiv
bom bing</w>
m atters</w>
e ther</w>
Origin ally</w>
re marked</w>
ch ro
An ti
ch ron
o gue</w>
W o
perc eived</w>
C ow
seri ously</w>
il legal</w>
h in
choo se</w>
su n</w>
sid ers</w>
Albu m</w>
ri al</w>
Su ch</w>
Den mark</w>
g y
apar tment</w>
Jon athan</w>
C E
read ers</w>
ad m
ti p</w>
an es</w>
lec ru
circum stances</w>
Play ers</w>
ver tical</w>
St ri
I ce</w>
Atlan ta</w>
me etings</w>
dru gs</w>
ali ve</w>
Ri hanna</w>
C A
batt alions</w>
con spir
pro xim
Toky o</w>
re mov
dol lar</w>
c ker</w>
prot est</w>
lic a</w>
eng er</w>
S ony</w>
R ab
bac ked</w>
sun k</w>
Ni xon</w>
J on</w>
civil ian</w>
Ro y</w>
Ric o</w>
Cam pa
wick et</w>
John ny</w>
Bas eball</w>
whi lst</w>
st ery</w>
en su
cont ext</w>
T A</w>
K ing
strength ened</w>
recon naissance</w>
C C</w>
vis iting</w>
b ling</w>
Ter rit
Car din
A my</w>
m ingham</w>
du bbed</w>
C ov
p ages</w>
dem oc
D O
sub ur
simil arly</w>
plan ets</w>
n esses</w>
simultan eously</w>
ob tain</w>
b ones</w>
en ro
en listed</w>
leg acy</w>
it ated</w>
sh ut
altern ate</w>
Ab bey</w>
deman ded</w>
cl one</w>
typ hoon</w>
tri bes</w>
t ine</w>
gr and</w>
defini tion</w>
accur ate</w>
ul ty</w>
ill ness</w>
al tar</w>
acc um
P ro</w>
k ic
b id
insi sted</w>
Per ry</w>
ra m</w>
d ancing</w>
k el
v an
er on</w>
fu r</w>
E P</w>
coun t</w>
Jim my</w>
mer chant</w>
T ot
Bus iness</w>
shi ft</w>
re venue</w>
m o</w>
Arn old</w>
dem ands</w>
con sole</w>
Ke ith</w>
G az
m amm
j ury</w>
gra ve</w>
est yle</w>
A ma
person ally</w>
Pri ze</w>
M A</w>
ru ling</w>
contin ental</w>
Ra w</w>
dri vers</w>
cir cle</w>
athlet es</w>
se st</w>
ous ness</w>
bom bs</w>
strugg led</w>
Sh ep
Ni k
Inter net</w>
Ch el
pro ve</w>
min ation</w>
co inci
R un
en sion</w>
s n
pi one
orchest ra</w>
minim al</w>
interpre tation</w>
W es
Sil ver</w>
B ea
pro pag
mark eting</w>
est one</w>
Mad agas
mer chan
m ent
main land</w>
with draw
temp o</w>
guit arist</w>
guil ty</w>
bri ght</w>
art work</w>
Yanke es</w>
e us</w>
Ed wards</w>
j obs</w>
enti ally</w>
believ ing</w>
Dre am</w>
exten d</w>
K urt</w>
arm ies</w>
W ard</w>
st ac
D o</w>
mark ets</w>
L and
with draw</w>
demoli shed</w>
ac claim</w>
T racy</w>
B ed
in sur
L oo
Bir mingham</w>
star ring</w>
Fur thermore</w>
App le</w>
Ch u
pos ure</w>
fe els</w>
dre ssed</w>
c tic</w>
b ic
as su
disc overs</w>
comp ens
pro file</w>
increas es</w>
ac ous
Y ou
Rid ge</w>
Ev entually</w>
Ob ama</w>
Hum an</w>
ob ile</w>
o ing</w>
k W</w>
sec retary</w>
coun ties</w>
v est
th am</w>
spirit ual</w>
d its</w>
az ines</w>
stra tions</w>
de pu
Rail road</w>
par ks</w>
Enter prise</w>
pro j
gre y</w>
D ead</w>
pursu e</w>
og an</w>
co in</w>
bon us</w>
H ills</w>
K an
sig nal</w>
clo thing</w>
pat ri
On t
st en</w>
pol e</w>
dev o
vo y
to tal
produc tions</w>
j e
deli very</w>
dang er</w>
Can ter
be aring</w>
arm our</w>
A le
Augu st
t ab
est er
do ors</w>
challeng ed</w>
ba by</w>
W ayne</w>
Uni versal</w>
cu tting</w>
m entation</w>
H ur
elev ation</w>
Lo st</w>
tar g
fun ny</w>
acc es
Rach el</w>
Que ens
Hu dson</w>
Connec tic
sc ore
ex act</w>
al lo
Madagas car</w>
tur b
in ary</w>
Ch and
tri gg
st em
flo od</w>
el ds</w>
hor iz
d ogs</w>
L et</w>
Hu gh</w>
Connectic ut</w>
Bob by</w>
Ch o
oc ks</w>
g ated</w>
foo t
Phoen ix</w>
M ach
Ju an</w>
sit ting</w>
ren ov
over seas</w>
educ ational</w>
K on
vic es</w>
under stood</w>
over whel
acknowle dged</w>
Morri son</w>
McCar tney</w>
tri ple</w>
N ine</w>
s ant</w>
may or</w>
deter i
cul tiv
connec ting</w>
Ri ghts</w>
re alized</w>
mar ry</w>
b arri
archit ect</w>
aff ect</w>
ed ited</w>
dic t</w>
Ont ario</w>
C O
ra ising</w>
def ences</w>
sk el
er ected</w>
con version</w>
pri ses</w>
K ey</w>
tu bes</w>
in age</w>
i .
emp lo
settl ers</w>
par tial</w>
ol ds</w>
comp ounds</w>
atom ic</w>
indic ating</w>
Ju pit
t ack
T ai
supp lied</w>
Fri day</w>
zz le</w>
legis lature</w>
Imp act</w>
Comm unity</w>
Canter bury</w>
musici an</w>
T odd</w>
obj ective</w>
ish ment</w>
uni ties</w>
dre am</w>
di et</w>
s sion</w>
mu sh
high ways</w>
deci sions</w>
th um
d d</w>
Al lies</w>
initi ated</w>
f ish
concent ration</w>
arrang ements</w>
Def ence</w>
co at</w>
campaig ns</w>
s q</w>
pro spec
am at
S ho
t ale</w>
li ft</w>
exac tly</w>
K en</w>
s anc
lu m
ash ed</w>
after math</w>
stri king</w>
mil l</w>
hi dden</w>
f rac
weal thy</w>
te es</w>
establi shing</w>
b led</w>
per mitted</w>
b eam</w>
w restling</w>
lo an</w>
su b</w>
publi shing</w>
l ings</w>
improv ements</w>
dissip ated</w>
H eb
gradu ated</w>
al i</w>
bac ter
aggre ssive</w>
W C</w>
Pru ssi
P S
exp and</w>
ap h
Win dows</w>
S em
N at
soldi er</w>
k way</w>
fe eding</w>
Tru st</w>
Pit ts
tol er
p ure</w>
observ ations</w>
in ations</w>
UE FA</w>
Mi k
Dri ve</w>
Di am
ra ids</w>
ad ju
wal king</w>
Out standing</w>
tur n
ru b
remov al</w>
consider ing</w>
S on
trav els</w>
Napol eon</w>
fe wer</w>
celeb rated</w>
vir us</w>
publi cations</w>
prof it</w>
Bo ys</w>
ju ris
gu ese</w>
er r
ff in</w>
encoun ter</w>
Hind u</w>
th ouse</w>
st ric
resc u
requi res</w>
f ounding</w>
Com mer
evacu ated</w>
ou ver</w>
cham ber</w>
comp lim
ali d</w>
Dra gon</w>
tur ret</w>
re mix</w>
plac ing</w>
origin ated</w>
orig ins</w>
T in
d ation</w>
anc ouver</w>
acci d
V ancouver</w>
sta tioned</w>
Phi l</w>
Le gen
B ak
ex plan
do x</w>
quarter back</w>
qu est</w>
behavi our</w>
def ending</w>
Jupit er</w>
re di
im perial</w>
rebel lion</w>
in duc
a erial</w>
Budd hi
shor ter</w>
pan el</w>
announ cement</w>
Ba by</w>
shor t
N ad
magne tic</w>
w are</w>
pu tting</w>
ou ghts</w>
el e</w>
Bar bar
st an</w>
assemb led</w>
z u
f antasy</w>
strate gic</w>
dow ns</w>
Revi ew</w>
Ma x
mag azines</w>
bri lli
T NA</w>
Pear l</w>
Moun tains</w>
ex posure</w>
appro aching</w>
extrat ropical</w>
don ated</w>
chap el</w>
W ell
in sects</w>
e enth</w>
ca ster</w>
Portu guese</w>
Brad man</w>
clo sure</w>
Con cer
ran ges</w>
ong oing</w>
discus sion</w>
D wi
Ch ur
Ch ampions</w>
C A</w>
Ang el</w>
Af gh
Administ ration</w>
ten der</w>
all as</w>
enni um</w>
col leagues</w>
ga thered</w>
D enn
Ar k
asp ect</w>
young est</w>
s ang</w>
m ac
We ek</w>
use ful</w>
re sp
gen ous</w>
et own</w>
clo sest</w>
Ex press</w>
met re</w>
Fore ign</w>
Campa ign</w>
re tain</w>
batt lecru
o ks</w>
indic ates</w>
Tro phy</w>
un ited</w>
tal ent</w>
iz ing</w>
inter rup
B eng
vol umes</w>
hosp it
graphi c</w>
Æ thel
v ary</w>
d ment</w>
sm ooth</w>
land scape</w>
Pe ace</w>
withdraw al</w>
strong est</w>
ev alu
Gir ls</w>
Ed in
radi ation</w>
l on</w>
deci de</w>
Dwi ght</w>
189 3</w>
mar gin</w>
disc uss</w>
ch ec
A lice</w>
guar an
identi fy</w>
gen der</w>
brea ks</w>
com e
Vic tor</w>
top ped</w>
theat rical</w>
s i</w>
prec ed
Coll ins</w>
trou ble</w>
flow ers</w>
exp lic
specim en</w>
mer ely</w>
collap sed</w>
B aker</w>
te ach
sm en</w>
or i</w>
e .
W on
K ru
sen tim
den sity</w>
189 6</w>
um s</w>
tru st</w>
os ex
ani um</w>
interpre ted</w>
gra ss</w>
Reser ve</w>
phra se</w>
intel lec
e .</w>
Tran s
e at</w>
conn ect</w>
con stitution</w>
a b</w>
Hamp shire</w>
conc ep
B is
versi ties</w>
vis its</w>
tol l</w>
R at
lim its</w>
NC AA</w>
Ch ampion</w>
l en
du o</w>
disp at
ass embly</w>
Fl eming</w>
promo tional</w>
per sons</w>
be ats</w>
ann ually</w>
A pol
wa it</w>
tic a</w>
Edin burgh</w>
wee kly</w>
sa ti
Th ose</w>
Ru n</w>
3 50</w>
Tri b
Rho de
Pak istan</w>
f ting</w>
ali tion</w>
tin y</w>
gu ide</w>
t us</w>
se ized</w>
ques tioned</w>
go d</w>
S ak
Char ts</w>
Typ e</w>
Fl ying</w>
mag ic</w>
concent rated</w>
P ap
member ship</w>
bas in</w>
un cle</w>
respec tive</w>
n as
id ers</w>
electric ity</w>
ch ampions</w>
att ending</w>
empha sis</w>
ap le</w>
189 8</w>
mar king</w>
forc ements</w>
Gu it
C oo
og a</w>
k er
ex pression</w>
Y ears</w>
B ad</w>
sp an</w>
ir ates</w>
Min t</w>
p apers</w>
cu ts</w>
anim e</w>
na h</w>
Bro ok
off ense</w>
nav y</w>
j er
inst al
V a
ch ronic
So cial</w>
sk ull</w>
Sci ent
O ur</w>
so ftw
cro ps</w>
ri ous</w>
investig ate</w>
del ay</w>
commis sion
alcoho l</w>
Is lam
Ch es
vi c</w>
exerc ise</w>
un less</w>
tal king</w>
peti tion</w>
ro y
T our
Sk y
Prin ci
reg ul
om ing</w>
Fin ally</w>
pri ze</w>
lic en
dau ghters</w>
a to</w>
ris m</w>
floo ded</w>
C o</w>
portra yal</w>
man ga</w>
b ea
Tri ple</w>
Democ rats</w>
S cre
hydro gen</w>
c eased</w>
adverti sing</w>
Victor ian</w>
T og
u ted</w>
de fic
Per forman
u a</w>
regim e</w>
Gre g</w>
Bas e</w>
Argent ina</w>
correc t</w>
birth day</w>
Ra j
G ate</w>
cle an</w>
t z
mag nit
e an
bl in</w>
softw are</w>
shar p</w>
ha z
Christi anity</w>
uni st</w>
sen ding</w>
photogra phs</w>
bi o
at titude</w>
mechan ical</w>
ear n</w>
c ool</w>
Vil lage</w>
swim ming</w>
Bro thers</w>
194 0s</w>
h itting</w>
Person al</w>
Con vention</w>
Al b
lo ved</w>
Mar vel</w>
tu be</w>
ro cks</w>
continu ous</w>
Over all</w>
Hu gh
sol ved</w>
Chronic le</w>
trans lation</w>
sc attered</w>
n ish</w>
drin king</w>
under went</w>
de x</w>
Jer ry</w>
lo gy</w>
acous tic</w>
Tran spor
J T
Char ac
un clear</w>
sec re
it ely</w>
den se</w>
char ted</w>
ou gh
Po tter</w>
189 9</w>
rep lied</w>
h o</w>
be c</w>
C au
cous in</w>
rhyth m</w>
ist oc
astr onom
represent atives</w>
pi ke</w>
fair ly</w>
or able</w>
conc eived</w>
York shire</w>
W an
Rober ts</w>
si e</w>
qu een</w>
est ant</w>
doub t</w>
comm entary</w>
Mar t
ro t
po is
ex press</w>
por ting</w>
law yer</w>
imag ery</w>
g on
ter rain</w>
st ops</w>
thir teen</w>
flow s</w>
exec ution</w>
emp ire</w>
Phi lli
Mo sc
May a</w>
s ou
fail ing</w>
s om
li an</w>
exclu sive</w>
over ing</w>
Luc as</w>
sh al</w>
mon ast
di s</w>
d uration</w>
re hear
mov ies</w>
for th</w>
U C
sc ope</w>
Tur ner</w>
M ack
ref er</w>
iden tical</w>
experim ental</w>
dev ast
accompan ying</w>
ta g</w>
surren dered</w>
bran ches</w>
a x</w>
ten ure</w>
friend ship</w>
ec tives</w>
arri ves</w>
sc ar
embar ked</w>
Oli ver</w>
H az
C ook</w>
strong er</w>
pen et
Mar ge</w>
t ested</w>
compon ents</w>
Sy n
Jam a
t ape</w>
succ ession</w>
row ed</w>
Simil arly</w>
How e</w>
u tions</w>
ligh ted</w>
fossi l</w>
at ever</w>
Nor folk</w>
Cham ber
re verse</w>
cent ers</w>
bl ack
prov in
provin cial</w>
cu t
Her itage</w>
H an</w>
Fin land</w>
re ducing</w>
comp eting</w>
author ized</w>
Y o
water shed</w>
R I
sm ith</w>
rein forcements</w>
hand led</w>
cou p</w>
Sea son</w>
pri ces</w>
d in</w>
tra ding</w>
e. g.</w>
Bel gian</w>
reve al</w>
N eil</w>
os au
el ine</w>
destro ying</w>
c ards</w>
Prof essor</w>
Hawai i</w>
resol ved</w>
cros s
L loyd</w>
Ch er
wor thy</w>
sla very</w>
i ties</w>
exclu sively</w>
dden ly</w>
P ed
Nichol as</w>
ser ver</w>
olog ies</w>
invest ment</w>
il es</w>
cle an
ar c</w>
Comm unist</w>
Bur ton</w>
Bar ry</w>
publi sher</w>
compon ent</w>
10 5</w>
s wi
run ner</w>
met ric</w>
Boo ks</w>
inter ven
Rang ers</w>
st om
bassad or</w>
par liament</w>
low n</w>
g om
duc es</w>
Queens land</w>
L C</w>
th rown</w>
tex ts</w>
ist er</w>
ini st</w>
Har dy</w>
precipit ation</w>
gain ing</w>
bur ned</w>
el abor
develop ers</w>
anc ell
ari ans</w>
Bu ck
us ers</w>
tra ded</w>
ol f</w>
govern ments</w>
exter nal</w>
dev ices</w>
b ilities</w>
El li
A x
vari ed</w>
rac ial</w>
Cre dits</w>
Ser vices</w>
Ca therine</w>
Sha w</w>
G on
vo ting</w>
i. e.</w>
ban ned</w>
Me dical</w>
f ate</w>
H ill
P att
Cam p</w>
ri ding</w>
Benn ett</w>
ric ts</w>
plat forms</w>
con siders</w>
adver tis
char ter</w>
ch est</w>
F red</w>
on ica</w>
electric al</w>
Tu be</w>
contribu tion</w>
ay a</w>
Transpor tation</w>
Car di
la in</w>
earthqu ake</w>
schol ar</w>
Tra ining</w>
T en
S po
v s.</w>
g i</w>
Davi es</w>
sec ution</w>
kil ls</w>
k u</w>
ham mad</w>
character istic</w>
M ong
C old</w>
S ound
hy bri
bo ilers</w>
b loo
architec tural</w>
Pri x</w>
song writer</w>
review ed</w>
le ans</w>
d war
c annon</w>
Pre sid
j an</w>
ther ing</w>
proc eeded</w>
hand le</w>
deb t</w>
tou ch</w>
tic ket</w>
sc ar</w>
four teen</w>
tal ks</w>
quali fying</w>
inter sects</w>
frequ ency</w>
adv ised</w>
Ho w</w>
loc ks</w>
impro vement</w>
doc tr
doc tor</w>
destro yer</w>
competi tive</w>
cl eared</w>
St even</w>
v ast</w>
ter ror
Vinc ent</w>
R P
hi re</w>
con fes
arti ficial</w>
Harv ard</w>
ver ses</w>
connec tions</w>
K om
G oo
sha res</w>
er ia</w>
certain ly</w>
Swi ft</w>
Cla ssi
requi rements</w>
li a</w>
down load</w>
R ick</w>
Anton io</w>
A F
189 7</w>
trans lated</w>
the ore
sam ples</w>
represent ation</w>
ra structure</w>
on t</w>
ma il</w>
f ed</w>
balla d</w>
Wi i</w>
Ever y
A L</w>
ter ies</w>
gr am
dist ant</w>
Wi th
Bo at</w>
six teen</w>
scri bed</w>
refer ring</w>
des cent</w>
Mosc ow</w>
D ram
cha se</w>
Os lo</w>
t rough</w>
tra il</w>
c ock
Vir gin</w>
nin et
b i</w>
Pitts burgh</w>
L t
t ag
char ity</w>
Li beral</w>
G allery</w>
ma kers</w>
confi dence</w>
Indone sia</w>
sh op
ju dg
em entary</w>
M ea
refl ect</w>
pra ising</w>
pati ents</w>
or atory</w>
il a</w>
gros sing</w>
B our
ti m</w>
desc end
tac tics</w>
photogra phy</w>
it i</w>
disp er
H is
H ag
u k
exist s</w>
Mis s</w>
Sa xon</w>
D ak
tour ed</w>
ri sts</w>
p ack</w>
out put</w>
fil m
par ody</w>
loc ked</w>
sla ve</w>
pu sh</w>
g ent</w>
eth eless</w>
communi st</w>
The od
Bern ard</w>
A del
ol en</w>
cour ses</w>
Cam eron</w>
ti les</w>
recomm end
p ers</w>
real istic</w>
re duction</w>
tax es</w>
ru ler</w>
qu ir
Hugh es</w>
comman ding</w>
comm enced</w>
Nor man
s and</w>
Ala ska</w>
w ish</w>
nau tical</w>
mo t
Har bor</w>
ric k
rein forced</w>
legis lative</w>
Gre at
Cra w
ton nes</w>
sig nature</w>
shoul der</w>
opport unities</w>
min ster</w>
att or
Wil d</w>
transpor ted</w>
survi val</w>
d ging</w>
ann e</w>
tu m</w>
N ig
y n
ur anium</w>
B ren
w n</w>
mar ines</w>
disc over</w>
. .</w>
k ar
h oo
Wall ace</w>
Micro soft</w>
tran sm
st on
re located</w>
acces sible</w>
mo on</w>
mel ody</w>
an o
rev ised</w>
f ram
di se</w>
Ta g</w>
JT WC</w>
dra fted</w>
bur ning</w>
Sk y</w>
f is
Ter ry</w>
Mc Kin
su m</w>
program ming</w>
po sts</w>
in deed</w>
cop per</w>
Sy ria</w>
min ority</w>
Sw iss</w>
After math</w>
trav eling</w>
pre domin
docum ent</w>
chem istry</w>
c ester</w>
J en
revol t</w>
instru ment</w>
comman ders</w>
St ru
M it
la sting</w>
e ks</w>
a ft</w>
189 0</w>
sc op
l ds</w>
igh t
V III</w>
bi ographer</w>
Sh eff
Pet er
ter n</w>
s overe
n is</w>
h at</w>
f li
ac ks</w>
K it
v o</w>
Sp ring</w>
B lan
i th
Isra eli</w>
with drawn</w>
sh ock</w>
prov inces</w>
ot es</w>
Pa ul
Lu ke</w>
exten ding</w>
A h
plan es</w>
esc ort</w>
Sp ea
fa x</w>
enn a</w>
clim b</w>
Sheff ield</w>
E ni
U pper</w>
Th er
N ext</w>
Loc al</w>
L ak
urric anes</w>
tho dox</w>
Ex ecu
fun dam
displac ed</w>
dec orated</w>
con servation</w>
experim ents</w>
eor ological</w>
Y am
K now
la h</w>
war fare</w>
vo ices</w>
princi ples</w>
gir l
Offic er</w>
May or</w>
v ous</w>
Sec urity</w>
A T
coll ec
189 5</w>
magnit ude</w>
lear ns</w>
St ef
prison er</w>
c ens
E ur
mar i
dic t
aut umn</w>
f an
shi fted</w>
lea f</w>
Em my</w>
v y
as s</w>
cul min
M and
D allas</w>
war ri
sam ple</w>
rela tives</w>
carri es</w>
abu se</w>
Malay sia</w>
tow ers</w>
air ing</w>
John ston</w>
d le</w>
c at</w>
dis mis
Tog ether</w>
Cy rus</w>
A re</w>
fun ded</w>
Clar ke</w>
Al i</w>
stro ke</w>
sc ores</w>
bloc ked</w>
Kar l</w>
K or
sc and
rival ry</w>
re lation</w>
im posed</w>
ess ors</w>
cre ek</w>
appro aches</w>
N S
Ba h
im er</w>
c r
Mis sion</w>
Bry an</w>
K ate</w>
Gu inea</w>
B il
sym pa
phy sics</w>
n an</w>
Performan ce</w>
f ford</w>
ell i</w>
du m</w>
Natur al</w>
mol ecu
cl oud</w>
tra ditions</w>
ta h</w>
propos als</w>
displa ys</w>
P ad
wast e</w>
m ass
inf lic
estim ates</w>
des h</w>
St and
war nings</w>
signific ance</w>
rebel s</w>
exper iment</w>
Ven e
Def ense</w>
multi player</w>
mar ch</w>
e ating</w>
rest ore</w>
medic ine</w>
ge on</w>
sur v
particip ation</w>
Re al</w>
my ster
Par sons</w>
Gre ater</w>
G race</w>
F BI</w>
1 25</w>
transpor tation</w>
prepar ing</w>
o b</w>
M other</w>
construc t</w>
compl ex
amat eur</w>
a sts</w>
Ow en</w>
A ustin</w>
liqu id</w>
i er</w>
S E
E is
ess entially</w>
N .</w>
tic le</w>
g ence</w>
dre ad
comm un
Chel sea</w>
ori ented</w>
valu able</w>
op tim
inter views</w>
e v</w>
e graph</w>
di versity</w>
comfor table</w>
ai de</w>
S cou
sk ill</w>
prot ests</w>
cycl ones</w>
For mation</w>
w ished</w>
in stitution</w>
du st</w>
dro me</w>
Pic tures</w>
L et
di verse</w>
sal ary</w>
dist ricts</w>
c lock</w>
un likely</w>
re leg
r ine</w>
cinem a</w>
Stev ens</w>
revol ution</w>
Ral ph</w>
Braz ilian</w>
spons ored</w>
rec overy</w>
l ord</w>
Z one</w>
Descri ption</w>
Cra ig</w>
B all</w>
tr y
main taining</w>
H end
no ticed</w>
Beg inning</w>
f oli
adequ ate</w>
L ac
re forms</w>
communic ations</w>
al lu
Great est</w>
peri o
it ations</w>
c he</w>
Dan ish</w>
l ington</w>
cab inet</w>
argu ing</w>
oc ity</w>
titu des</w>
em a</w>
ec o
dis gu
c lar
drum mer</w>
h yp
el ic</w>
bene ath</w>
D ay
recur ring</w>
b ish
ax y</w>
Tra il</w>
P el
S ega</w>
Ac tor</w>
A vi
ra ins</w>
medi ate</w>
St rat
J acqu
vulner able</w>
neighbor hood</w>
hi lls</w>
sal t</w>
sum ing</w>
en berg</w>
comp ound</w>
ber ry</w>
ultim ate</w>
empha si
b ance</w>
Lit er
Four th</w>
rou s</w>
o e</w>
simp li
pic tures</w>
app lications</w>
T ou
Stu dio</w>
Ca thedral</w>
B ach</w>
Auth ority</w>
statis tics</w>
L anc
stic k</w>
legen d</w>
d less</w>
O range</w>
D ru
ex tra
con soli
Tran sport</w>
M ey
E ve</w>
A gency</w>
un certain</w>
Ri ver
munici p
ch ore
ban ded</w>
Or leans</w>
O S</w>
neigh bour
jum p</w>
sur prised</w>
Ch e
mel o
Arm strong</w>
eff icient</w>
ti ght</w>
et a</w>
air line</w>
ach ute</w>
W er
J r.</w>
Cul tural</w>
hal f
em es</w>
Gra y</w>
Glo be</w>
Har old</w>
d dy</w>
J unior</w>
Char lot
Ser bian</w>
H at
dec or
S ic
N C</w>
x es</w>
organ isms</w>
col ors</w>
prac tical</w>
inclu sion</w>
consci ous</w>
St al
di min
Cla ssic</w>
ri er</w>
fe e</w>
al lied</w>
FI FA</w>
186 1</w>
pati ent</w>
G an
og en
j ack
cen tim
k ra
cour t
ant in
Elec tr
ma ker</w>
Rho des</w>
188 9</w>
be ars</w>
a im</w>
struc tural</w>
ha r</w>
educ ated</w>
Blo od</w>
rati o</w>
deep ly</w>
S car
F alls</w>
1 000</w>
j et</w>
bo ss</w>
air e</w>
Col e</w>
the ories</w>
squ adrons</w>
l ing
tri be</w>
tici pants</w>
ju ven
grand father</w>
ann er</w>
A ren
phi c</w>
jour nal</w>
Wel ls</w>
V e
psy chi
poten tially</w>
gra y</w>
b iting</w>
Que bec</w>
Prov ince</w>
Const antine</w>
189 4</w>
t ours</w>
r h
g ins</w>
Gre y</w>
proc esses</w>
sh ops</w>
d ily</w>
Rich mond</w>
C BS</w>
c king</w>
ali a</w>
W it
Republi cans</w>
schol ar
Ty ler</w>
Lar ry</w>
K ane</w>
A ber
susp ici
sum mit</w>
re mark
o lic
danc ers</w>
d life</w>
Ro b</w>
for tress</w>
eph one</w>
impl emented</w>
f inger</w>
par all
be t</w>
Sus an</w>
189 1</w>
rin t</w>
dea d
Scient ology</w>
di m
at ra</w>
sent ence</w>
resp ond</w>
play off</w>
lev ard</w>
cri mes</w>
Jeff erson</w>
C S
g au
U tah</w>
Stu art</w>
Sec ret</w>
K ings</w>
Har t
seg ments</w>
saur s</w>
persu aded</w>
civil ians</w>
Dar win</w>
D ick
low s</w>
beau ty</w>
be ating</w>
addre ssed</w>
Wom an</w>
Fi ghter</w>
A i
y an</w>
view ing</w>
Ge org
sa il</w>
her itage</w>
Sch um
ide al</w>
du al</w>
ban k
accommo date</w>
Apol lo</w>
um a</w>
re tro
in hi
hol es</w>
al titude</w>
Sym phony</w>
M I</w>
re actions</w>
i ons</w>
You Tube</w>
Mr s.</w>
B ell
sh allow</w>
b alls</w>
tren d</w>
reas on
re serv
pro of</w>
c ats</w>
Buff alo</w>
A ar
qu ad
hum or</w>
Thi r
N am
til ity</w>
pres entation</w>
f eared</w>
agricul ture</w>
Or chest
refu ge
Pic ture</w>
sev ent
re sident</w>
compla ined</w>
Am endment</w>
th under
s bury</w>
docum ented</w>
cl ou
B r
189 2</w>
g ross</w>
T em
Indone sian</w>
oper ates</w>
colum ns</w>
a o</w>
Ri o</w>
P ep
L as</w>
Cardi ff</w>
sa iling</w>
requ iring</w>
kil ler</w>
categ ories</w>
south eastern</w>
G w
stri kes</w>
k ie</w>
c able</w>
mea su
key s</w>
W oo
Cath olic
m age</w>
am bu
inter vention</w>
am az
Sh e
mem bered</w>
f ame</w>
whe el</w>
ti de</w>
ir on
gh ton</w>
P ea
H ob
Comm on</w>
Cap it
stre ak</w>
cam ps</w>
C ricket</w>
d as</w>
With out</w>
pregn ant</w>
myth ology</w>
follow ers</w>
sp el</w>
s son</w>
or ary</w>
confu sion</w>
Mont gom
Guit ar</w>
D ays</w>
D anny</w>
vic tim</w>
resear chers</w>
hor se
er ror</w>
diplom atic</w>
answ er</w>
wor ship</w>
wa ke</w>
us al
stret ch</w>
op ens</w>
extinc t</w>
K yle</w>
no se</w>
kin son</w>
juris diction</w>
gol den</w>
s uring</w>
dev oted</w>
d ley</w>
G at
. A.</w>
shi pped</w>
kne e</w>
So x</w>
writ ings</w>
su ddenly</w>
ob servation</w>
le an
Wis con
L em
stat ements</w>
inter action</w>
Win d
Un til</w>
Islam ic</w>
Com pu
voy age</w>
comm enting</w>
C avalry</w>
simil arities</w>
ic an</w>
Mu hammad</w>
girl friend</w>
escor ted</w>
eligi ble</w>
des ert</w>
proc ed
ev entu
Pas s</w>
N eg
Di e</w>
read s</w>
f a</w>
an ism</w>
am phi
Ren a
Bro oks</w>
sculp ture</w>
ni k</w>
high lighted</w>
adv ancing</w>
K ur
G y
satis fied</w>
rec over</w>
exten sively</w>
equ ally</w>
18 70</w>
g ang</w>
dem o</w>
V el
Bl u</w>
du s</w>
stu dying</w>
princi ple</w>
challeng es</w>
Li z</w>
Jer usal
Bo eing</w>
re lev
down lo
St ars</w>
Con servation</w>
us sion</w>
ri vals</w>
ra p</w>
prote ins</w>
p in</w>
n els</w>
Met ropolitan</w>
Her ald</w>
Air lines</w>
on ation</w>
mix ing</w>
gi ft</w>
loc ate</w>
gar dens</w>
V la
Bi ble</w>
therap y</w>
sp aw
f oun
d ay
sent enced</w>
life time</w>
H D</w>
200 0s</w>
ro of
kno cked</w>
ang ered</w>
Typ hoon</w>
Gu ad
Gla s
Execu tive</w>
E dition</w>
M P
sa tions</w>
re tri
organ ic</w>
inf rastructure</w>
Ag ain</w>
loc ally</w>
in no
hand ling</w>
man age</w>
Se an</w>
Leg is
ra d</w>
distur bance</w>
clo thes</w>
J ustin</w>
E vil</w>
2 40</w>
oran ge</w>
us er</w>
inher ited</w>
ex i
Tra de</w>
Bas ed</w>
tra ditionally</w>
s way</w>
pred ators</w>
f in</w>
de aling</w>
bound aries</w>
S id
Jerusal em</w>
pl ates</w>
el ite</w>
vari ation</w>
ra dical</w>
emp ty</w>
Wilhel m</w>
E mil
spher ic</w>
s word</w>
nov el
Gl en
Bo t
Independ ence</w>
und ant</w>
pe ace
on y
W arri
Qu ar
Bur ns</w>
Al ban
expla ining</w>
ancell or</w>
Gra de</w>
G M</w>
scho ol
con vers
ali ze</w>
M P</w>
wit nes
n at
Bar nes</w>
A ssi
re z</w>
hou sed</w>
b un
At tor
188 8</w>
recei ves</w>
k ni
inc ar
ga dier</w>
Si de</w>
sh ers</w>
ho liday</w>
Montgom ery</w>
shar ks</w>
im pression</w>
en abled</w>
ba i</w>
ad or</w>
C ad
settl ements</w>
recru ited</w>
impres sive</w>
M I
Bo x</w>
B ei
tic kets</w>
gar nered</w>
Ab u</w>
trav elling</w>
f lower</w>
consider ably</w>
Wiscon sin</w>
Tur key</w>
nam ing</w>
ici ently</w>
expl ore</w>
commer cially</w>
benef its</w>
Rog ers</w>
New ton</w>
st o
sh ut</w>
la ps</w>
av a</w>
Mac Arthur</w>
Har t</w>
C emetery</w>
188 5</w>
ster ly</w>
rescu ed</w>
ju dges</w>
ess ment</w>
col ours</w>
op tions</w>
le field</w>
con st
Com p
ra ys</w>
n eph
mo tor</w>
lo ver</w>
hosti le</w>
cra shed</w>
Hun ter</w>
sub stitute</w>
ash ore</w>
R NA</w>
weak ening</w>
war s</w>
s by</w>
ovi ć</w>
invol ves</w>
S ac
Regi ster</w>
Ac tress</w>
i ff</w>
c up</w>
bat ted</w>
O .</w>
t asked</w>
smo ke</w>
po ver
divor ce</w>
I cel
disc re
o to</w>
ed a</w>
concer ning</w>
Po k
Const antin
C S</w>
m ere</w>
ed es</w>
Sch o
ch ann
b ab
v or</w>
mix ture</w>
C ou
j i
depic ts</w>
st bound</w>
gu y</w>
det ected</w>
li er</w>
elabor ate</w>
R ing</w>
volunte ers</w>
pursu it</w>
go ds</w>
Bal tic</w>
a po
Ju dge</w>
tri um
manu script</w>
imprison ed</w>
e i</w>
bar s</w>
M ak
Bir d</w>
g all
bu rial</w>
loc k
legi timate</w>
coll ections</w>
Pier re</w>
Man agement</w>
war ships</w>
e ditions</w>
conflic ts</w>
competi tions</w>
Se e</w>
teamm ate</w>
ob vious</w>
Rom an
N ature</w>
war ned</w>
up set</w>
pursu ed</w>
din ner</w>
exam ination</w>
attrac t</w>
Hear ts</w>
Barbar a</w>
Ath ens</w>
tor ious</w>
un c
S or
Mov ie</w>
186 5</w>
j ing</w>
favour ite</w>
by pass</w>
sup er</w>
politici ans</w>
L eb
suspec ted</w>
f lies</w>
com ics</w>
anticip ated</w>
virtu ally</w>
trac ked</w>
mor ph
di ans</w>
N on
N an
μ m</w>
tom b</w>
ten ded</w>
op posing</w>
Rom ney</w>
G et</w>
vel ocity</w>
ur ged</w>
screen play</w>
A P</w>
ru shing</w>
renew ed</w>
pan ic</w>
manufac turing</w>
hom osex
gu id
deli ver</w>
bri s</w>
beli efs</w>
ail ey</w>
Sher man</w>
Com mission
Ag ainst</w>
veter an</w>
se u
produc es</w>
D eep</w>
th rowing</w>
for cement</w>
app ly</w>
ab road</w>
Represent atives</w>
v it
cen sus</w>
se ed</w>
N ancy</w>
Com edy</w>
s at</w>
forma tions</w>
depend ent</w>
uni versities</w>
st olen</w>
en os</w>
ch ea
S le
tor ate</w>
han g</w>
ec ture</w>
O ak
Mil es</w>
NA TO</w>
Il lu
re membered</w>
ff e</w>
Attor ney</w>
we t</w>
par ticipants</w>
med als</w>
lin ks</w>
der ly</w>
comp licated</w>
v ation</w>
tra iler</w>
symbo li
f ers</w>
S onic</w>
S ection</w>
P sy
ren dered</w>
promo ting</w>
D ick</w>
there by</w>
sic k</w>
exc ep
Li st</w>
A ges</w>
4 50</w>
er ship</w>
Trib une</w>
pit cher</w>
blu es</w>
x ed</w>
k u
bal lo
Met ro
H ell</w>
ow ing</w>
st own</w>
Nov a</w>
A D
cap turing</w>
Portu gal</w>
pow der</w>
on ds</w>
m p</w>
New castle</w>
uni form</w>
tra pped</w>
re gre
et ta</w>
decreas ed</w>
com preh
Rep ort</w>
N ever</w>
En viron
uni versal</w>
tis sue</w>
m aps</w>
cost ume</w>
bombar dment</w>
posi tively</w>
Constantin ople</w>
hop es</w>
ep s</w>
d der</w>
com positions</w>
accid entally</w>
Regi onal</w>
C ot
spec t
eventu al</w>
activ ated</w>
inv aded</w>
bi ological</w>
Hea vy
Bran ch</w>
li beral</w>
ac on</w>
Rea gan</w>
ri dor</w>
proto type</w>
produc tive</w>
conqu est</w>
celeb ration</w>
Th ames</w>
pul l</w>
b and
phen omen
or ship</w>
disc ri
Person nel</w>
n ice</w>
C row
torn ado</w>
occa sional</w>
d t</w>
Th ur
H ope</w>
Charlot te</w>
ster e
ow ski</w>
b by</w>
Mas on</w>
Heavy weight</w>
hop ing</w>
gen u
Si x
occur ring</w>
dread n
Wor k</w>
up coming</w>
am ph
Lab oratory</w>
vari ations</w>
le an</w>
gu ards</w>
d row
Aff airs</w>
186 4</w>
re mo
labor atory</w>
di str
app ing</w>
2 20</w>
mar t</w>
O thers</w>
Me dic
Gab ri
rec la
or m
Pet e</w>
si ded</w>
circu lar</w>
bom ber</w>
bat teries</w>
Satur n</w>
Chap el</w>
Cent ury</w>
Al ter
provi sions</w>
do zen</w>
Leon ard</w>
spac es</w>
sin king</w>
integr ated</w>
di r
Liber ty</w>
C li
separ ation</w>
gu ests</w>
fe ud</w>
ail ed</w>
E RA</w>
partic les</w>
revi val</w>
par liamentary</w>
li min
Vo ice</w>
Christi ans</w>
ob sc
nickn ame</w>
horiz on
easi er</w>
contin ent</w>
col m</w>
Spi der</w>
Fil ming</w>
Fer r
go w</w>
consu mption</w>
Mar k
Jo int</w>
He in
ash a</w>
Fre edom</w>
sup ports</w>
politici an</w>
c attle</w>
m ons</w>
gen res</w>
G ill
thre ats</w>
re tail</w>
r er
it ate</w>
indi genous</w>
im a</w>
avo ided</w>
tiv eness</w>
re strial</w>
qu e
har bour</w>
Sti ll</w>
volcan ic</w>
amp ton</w>
Le ic
sec t</w>
happ en</w>
concur ren
b rac
un ve
st un
sp eeds</w>
progre ssed</w>
for d
cor ps</w>
Armen ian</w>
z o</w>
restric tions</w>
depu ty</w>
R um
O C</w>
gra des</w>
corpor ate</w>
S now</w>
Mar ines</w>
Kenn eth</w>
Arch it
sig nation</w>
li ghter</w>
bow l</w>
En ergy</w>
stre ss</w>
K no
z om
tru ly</w>
Mal colm</w>
Bur n
in ser
Pan zer</w>
Met eorological</w>
ü r
sa d</w>
an te</w>
O scar</w>
E ff
D og
ru gby</w>
contrac ts</w>
Orchest ra</w>
us age</w>
pre mis
mur dered</w>
Chamber lain</w>
1 15</w>
qu o
ey ed</w>
ar ose</w>
V eg
K es
C ena</w>
ser ial</w>
moun ts</w>
evacu ation</w>
H us
Fri ends</w>
wal ks</w>
disp uted</w>
C ryst
custom ers</w>
Mag ic</w>
Bou levard</w>
Al am
go tten</w>
develop ments</w>
defend ers</w>
C inc
Ban k
re conc
o saurs</w>
ex ile</w>
b ach</w>
ori de</w>
op les</w>
ab sent</w>
186 2</w>
law suit</w>
ca thedral</w>
v as</w>
hum anity</w>
E igh
Ath letic</w>
sle ep</w>
no tice</w>
ac ri
Jos é</w>
er ra</w>
Cy clone</w>
spec ulation</w>
int ent</w>
cy clo
L P</w>
E .
Contin ental</w>
An tar
ang el
Tur n
pol ar</w>
engine ers</w>
de bris</w>
Z ero</w>
k iss</w>
inf ection</w>
ang ry</w>
Roo m</w>
M C</w>
Fin n</w>
í a</w>
depic ting</w>
d r
acc or
C anu
A qu
th ru
defin itely</w>
Ed die</w>
r ams</w>
ne ys</w>
dis appointed</w>
chi ll</w>
agre es</w>
a side</w>
qui et</w>
enti eth</w>
S ey
H as
Ex c
Contro l</w>
sea son
s lu
cro p</w>
ignor ed</w>
Ped ro</w>
H ab
Care er</w>
revol utionary</w>
industri es</w>
encoun ters</w>
decreas e</w>
Y outh</w>
G lee</w>
threat ening</w>
ran ged</w>
lyric al</w>
X I</w>
Tour nament</w>
t am
absor bed</w>
F ly
prac ti
ex hau
comp et
N H
Dra ft</w>
Ser bia</w>
under taken</w>
mechan ism</w>
sel ect</w>
enjo y</w>
at op</w>
Ot ta
B ears</w>
Alber ta</w>
Ac tion</w>
vic inity</w>
s tim
om a</w>
lo ading</w>
judi cial</w>
fu sion</w>
ssi onal</w>
lay ers</w>
foc uses</w>
convic ted</w>
touch downs</w>
ta ste</w>
St and</w>
Rep or
neutr al</w>
cam er
H g</w>
Ed mon
sensi tive</w>
lac king</w>
exhi bit</w>
convers ation</w>
ch ampionships</w>
DO T</w>
posi tioned</w>
mo ti
fav oura
dis order</w>
Gi br
cre st</w>
V au
remin is
mamm als</w>
inaug ural</w>
gener ate</w>
ent e</w>
cont acted</w>
l on
fer ring</w>
ch eck</w>
T reas
Cinc inn
Ad ri
susp ension</w>
pre serve</w>
lo yal</w>
fea thers</w>
farm ers</w>
el er</w>
spo kes
rif ice</w>
boy friend</w>
a es
w oods</w>
gri d</w>
g é</w>
en han
const antly</w>
Musli ms</w>
Coll ection</w>
deci sive</w>
Tom my</w>
p en</w>
coll ect</w>
Mc G
B ath</w>
helicop ter</w>
bre eds</w>
Yugosla via</w>
nu tri
en com
Brad ley</w>
sh a</w>
r ity</w>
fac il
ea gle</w>
cot t</w>
Ta x
Stu dies</w>
Spring field</w>
Cz ech</w>
vo ters</w>
aff ir
sur ge</w>
pro p
predomin antly</w>
mu s</w>
limin ary</w>
collabor ated</w>
V illa</w>
St y
Jac ob</w>
pro secu
im pe
des per
brilli ant</w>
asser ted</w>
arm oured</w>
W ed
Mal ta</w>
pri est</w>
pl eased</w>
omet ric</w>
f as
U p
Ru th</w>
territ orial</w>
os ity</w>
dro pping</w>
J ake</w>
Col om
portra it</w>
ar do</w>
Ma ine</w>
F all</w>
shi eld</w>
relea sing</w>
re member</w>
cast les</w>
Shi va</w>
Du blin</w>
Bo y
tic ism</w>
spo ts</w>
intellec tual</w>
illu strated</w>
f ab
reli eved</w>
re moving</w>
h r</w>
grow s</w>
diam ond</w>
comp iled</w>
R ick
L ower</w>
Cincinn ati</w>
quir y</w>
pres ti
dep loy
em is
eg g</w>
ac tively</w>
Pl ace</w>
Par ks</w>
Arch bishop</w>
s light</w>
explan ation</w>
cent ered</w>
a tively</w>
Ra di
Angel ou</w>
An cient</w>
sw ept</w>
know s</w>
it u
aren a</w>
y i
radi o
pen insula</w>
V it
Spi rit</w>
L un
o ir</w>
canc eled</w>
b ent</w>
b ble</w>
O u
tru ck</w>
situ ations</w>
pay ing</w>
inst all
hol ders</w>
he ir</w>
attor ney</w>
Gibr altar</w>
to ols</w>
o thy</w>
is n</w>
independ ently</w>
el ler</w>
c ant
Norman dy</w>
Bel i
pro vo
d ock</w>
10 1</w>
p o</w>
ex emp
Com ics</w>
t esti
road way</w>
fossi ls</w>
d ur
Alli ance</w>
á n
i gh</w>
en orm
188 7</w>
var ying</w>
pol lu
Veg as</w>
Mac ed
9 78</w>
super vis
st res
Jo an</w>
u g
s now
off shore</w>
d il
P lay</w>
mar ched</w>
h ec
el ls</w>
b red</w>
an istan</w>
Sch ol
Pro gram</w>
Oli via</w>
L ex
F itz
Afgh anistan</w>
2 4th</w>
wid th</w>
t ooth</w>
sc ap
busin ess
pu ts</w>
per t</w>
ov ic</w>
locomo tives</w>
g ades</w>
ch o</w>
A m</w>
ste am
cal culated</w>
aband on</w>
188 0</w>
186 3</w>
cou ldn</w>
S S
B apti
repor ting</w>
Con servative</w>
expan ding</w>
188 6</w>
it arian</w>
bul k</w>
Sp y</w>
r ounded</w>
posses sed</w>
Ma xim
qu oted</w>
R ear</w>
Fer n
Con c
z ero</w>
li s
le tics</w>
bb ard</w>
alo g</w>
H app
Greg ory</w>
sub ordin
str ates</w>
mig ration</w>
dis appeared</w>
col ored</w>
att y</w>
Schum acher</w>
R ey
L eeds</w>
Bur ke</w>
Techn ology</w>
R est
L A</w>
m ic</w>
R evolutionary</w>
Pro vi
N ear</w>
sugg estion</w>
regu lations</w>
o saurus</w>
itch en</w>
ir o</w>
Dep u
Fried rich</w>
stor ed</w>
n y
celeb rate</w>
J NA</w>
la va</w>
Tw itter</w>
T ac
Swe et</w>
K ath
H ull</w>
ring e</w>
og y</w>
pain t</w>
m ented</w>
fun gus</w>
boo k
W A</w>
Brook lyn</w>
vi an</w>
re ls</w>
mon it
induc ted</w>
conspir acy</w>
per im
flow n</w>
direc ting</w>
Y e
for ts</w>
fac ulty</w>
attrac tion</w>
Ma dison</w>
s field</w>
ro e</w>
ri ties</w>
ca ve</w>
swe et</w>
roman ce</w>
repor ter</w>
st ability</w>
rac ed</w>
ph ed</w>
n evertheless</w>
met als</w>
be er</w>
S pot</w>
Merc ury</w>
Denn is</w>
wit nesses</w>
sc ent</w>
rou ting</w>
lic ense</w>
estim ate</w>
Ban ks</w>
10 4</w>
sh eep</w>
di ble</w>
bl amed</w>
Th an
umber land</w>
out standing</w>
in ated</w>
acqu isi
par king</w>
no ise</w>
cru ise</w>
K ey
sust ain
a j</w>
remo te</w>
publi city</w>
K ep
squ e</w>
k ing
foc using</w>
ch ard</w>
McKin ley</w>
wh atever</w>
sub marines</w>
Sm all</w>
P ul
D am</w>
s ville</w>
ri k</w>
r ary</w>
progre ssive</w>
kid n
conn ects</w>
challeng ing</w>
Tig ers</w>
P om
Le o</w>
Histor ical</w>
Hal f</w>
retre ated</w>
ori um</w>
interc ep
Rec ord</w>
Organ ization</w>
n ery</w>
Princ eton</w>
P lac
188 4</w>
th al</w>
reli able</w>
pu r</w>
ast ro
Sco ts</w>
targ eted</w>
for tifications</w>
condem ned</w>
b ig
Cir cu
in Hg</w>
Yugosla v</w>
Mar shal</w>
m 3</w>
exam ined</w>
ai ded</w>
P am</w>
NA SA</w>
Is le</w>
Her bert</w>
win ners</w>
stu dios</w>
li fted</w>
Glas gow</w>
F ar</w>
Bar cel
so m</w>
mach in
fiel der</w>
correspon ding</w>
conduc ting</w>
compan ion</w>
ag an</w>
Hel en</w>
rou d</w>
In tel
Canu cks</w>
re signation</w>
pl ing</w>
fa ult</w>
drin k</w>
dis banded</w>
T ests</w>
M ang
E very</w>
um p
stu ff</w>
gl aci
el der</w>
A. V.</w>
g ary</w>
b low</w>
Poli tical</w>
P lan</w>
Oper a</w>
w ag
conv ince</w>
co ff
tru m</w>
torpe does</w>
tel ephone</w>
ta ker</w>
play able</w>
mach ines</w>
i di
fav ored</w>
Tun es</w>
Rob in</w>
P lu
G ros
prec eding</w>
en er
Sci enti
reb ounds</w>
emb ers</w>
confu sed</w>
Elec tric</w>
ro ster</w>
pho to</w>
ne o</w>
men tions</w>
insur ance</w>
di st</w>
com ment</w>
T as
t um
Phil lies</w>
C W</w>
A T</w>
mo du
br ings</w>
V P</w>
Mont ana</w>
wor se</w>
mil it
g ned</w>
fer ry</w>
N ick
B CE</w>
cas h</w>
Wag ner</w>
Or ton</w>
sw itch</w>
sol ely</w>
shar ing</w>
sa v
gh o
concep ts</w>
S oul</w>
regim ents</w>
p ink</w>
en sis</w>
cre ature</w>
Chu ck</w>
tou rist</w>
are ly</w>
Ma c</w>
M ess
p ale</w>
gu er
b ard</w>
dar ker</w>
Theod ore</w>
Pok é
Mill ennium</w>
17 0</w>
k ids</w>
el berg</w>
d ore</w>
West minster</w>
v ine</w>
termin al</w>
synthe si
ad er</w>
P av
18 00</w>
re ven
histor ically</w>
bu ll
Pro fes
187 7</w>
tim ber</w>
lin ear</w>
N L</w>
ro tation</w>
Sm ack
Pol y
H ei
Cel tic</w>
scholar ship</w>
U kra
Simil ar</w>
Fi fth</w>
u ph
Merc edes</w>
them ed</w>
stea dily</w>
sp ite</w>
eb ra
Wh ere</w>
Hu bbard</w>
ro lling</w>
Ul tim
har v
L ink</w>
187 6</w>
Ep iso
pri vil
on so</w>
W ig
Den ver</w>
w ire</w>
promp ting</w>
war time</w>
st range</w>
my self</w>
consider ation</w>
am ine</w>
ac claimed</w>
N ation</w>
tri o</w>
theat ers</w>
mess ages</w>
Bas ketball</w>
Alb any</w>
wal ked</w>
si m
aff e</w>
In side</w>
p av
monast ery</w>
mea suring</w>
le st</w>
distinc tion</w>
as sign
S par
Per cy</w>
O ff</w>
Chi ld</w>
Adv enture</w>
w ing
spac ecraft</w>
re construction</w>
w av
su gar</w>
promis ing</w>
expl ored</w>
cur ved</w>
Tin tin</w>
Re ed</w>
sh oc
argu ments</w>
J an</w>
Gl ou
Ad ditional</w>
ligh t
fla sh
elev ated</w>
Bulg arian</w>
reci pi
ew ise</w>
ag encies</w>
ML B</w>
gu sts</w>
ge ant</w>
The ater</w>
sum mar
ref uses</w>
dec ay</w>
commit ment</w>
clou ds</w>
be dro
pres ents</w>
Otta wa</w>
Car los</w>
B ag
spec tac
enni al</w>
accompli shed</w>
Nev ada</w>
radi us</w>
p .m.</w>
op ined</w>
Mu sical</w>
consist ently</w>
I ran</w>
D s</w>
Austr o</w>
inci dents</w>
es ch
cri tically</w>
consci ousness</w>
c emetery</w>
Fu ture</w>
phy sically</w>
lab our</w>
M E</w>
Go thic</w>
Bal d
wor ker</w>
villa in</w>
trans mission</w>
reven ge</w>
pro claimed</w>
leg ally</w>
intro duce</w>
Territ ory</w>
Poké mon</w>
Jo y
Barcel ona</w>
synthe sis</w>
shir t</w>
pho sp
lo ose</w>
kilomet ers</w>
interrup ted</w>
exter ior</w>
cre atures</w>
be e</w>
Mor ning</w>
D J</w>
Bri en</w>
particip ating</w>
or n</w>
er ce</w>
con sequence</w>
ou ldn</w>
jo ins</w>
H ans</w>
f at</w>
ell ers</w>
ar o</w>
K az
navi gation</w>
exper t</w>
sur passed</w>
ov a</w>
fin est</w>
ca sts</w>
W ind</w>
Li ght
Cardin als</w>
187 5</w>
she et</w>
on er</w>
nar row
centim et
b row
Sul tan</w>
Par aly
less er</w>
in s
an x
S ep
form ula</w>
en cer</w>
auth en
Ge off
Eni x</w>
pro portion</w>
complim ented</w>
P le
Micha els</w>
B ron
proper ly</w>
p se</w>
on au
con fig
ceremon ies</w>
Met ro</w>
M um
ten sions</w>
sp ur</w>
gh ting</w>
enhan ced</w>
dem ographic</w>
d ity</w>
T ul
Prot estant</w>
sha ft</w>
natur ally</w>
g ru
exten ds</w>
exc ess</w>
deliber ately</w>
coun c
contribu te</w>
Pen n</w>
Chur chill</w>
tel es
Par kway</w>
Dev il</w>
st aged</w>
scand al</w>
pe oples</w>
ex ag
bow led</w>
L ords</w>
v aries</w>
prepar ations</w>
t estim
ri der</w>
rema ke</w>
moder ni
hea vier</w>
Fo ster</w>
Ap pe
tow n
m ers</w>
her d</w>
fi ghts</w>
an us</w>
188 3</w>
su dden</w>
instruc tions</w>
v ent
R il
Em ma</w>
Aren a</w>
trans formed</w>
on wards</w>
man sion</w>
inter mediate</w>
O ak</w>
Legen d</w>
F arm</w>
F air</w>
Col in</w>
CE O</w>
ep ic</w>
electr on</w>
Er nest</w>
up dated</w>
stere otyp
Oper ations</w>
188 1</w>
v ital</w>
k an</w>
ff ed</w>
emer ging</w>
co aches</w>
Rom anian</w>
Manu el</w>
u ps</w>
relev ant</w>
achiev ements</w>
s ers</w>
initi ative</w>
Smack Down</w>
M embers</w>
Cir cle</w>
south western</w>
ashi re</w>
air borne</w>
a is</w>
Sci ences</w>
vari able</w>
out come</w>
lo go</w>
h ence</w>
descri p
Dra ke</w>
rou tine</w>
propag anda</w>
Ven ice</w>
R eb
Isa ac</w>
D od
manag ing</w>
he imer</w>
Ric hard
North west</w>
lea se</w>
h r
di ve</w>
cust om</w>
Midd les
K ol
Jo sh</w>
Jama ica</w>
Bra h
than ks</w>
proc essing</w>
popul ated</w>
minist ers</w>
ev es</w>
b ols</w>
I van</w>
veget ation</w>
dis abled</w>
auto biography</w>
pay ment</w>
p ound</w>
orchest ral</w>
list ening</w>
hy per
hun t</w>
tou rists</w>
pu pp
prin ting</w>
pas sion</w>
neu ro
impl em
depos its</w>
Lu d
186 9</w>
ten den
su ited</w>
nu t</w>
h u</w>
fin ance</w>
exerc ises</w>
depic tion</w>
associ ate</w>
Pow ell</w>
10 2</w>
neph ew</w>
mon ster</w>
en son</w>
ed ings</w>
Lanc ashire</w>
Fun d</w>
wrec k</w>
speci fied</w>
sp an
perf ec
pa ved</w>
p a</w>
loy alty</w>
gener a</w>
achiev ement</w>
Ch em
Cal gary</w>
pun ishment</w>
perman ently</w>
leg es</w>
weigh ed</w>
un anim
st ore
sc ru
lin e
journ alists</w>
deleg ates</w>
b ore</w>
Ray mond</w>
Do g</w>
spo res</w>
pr ince</w>
on t
molecu lar</w>
gi on</w>
com prising</w>
A guil
19 0</w>
186 6</w>
wi g</w>
presid ency</w>
munici pal</w>
lat est</w>
is ph
doctr ine</w>
cla y</w>
bor ders</w>
b re</w>
R eligi
v et</w>
Fer din
Dun can</w>
witnes sed</w>
h urt</w>
g est
ew ard</w>
assass ination</w>
ach el
Ro dri
F loyd</w>
sub tropical</w>
sear ching</w>
reveal ing</w>
per formers</w>
es el</w>
environ ments</w>
dimen sional</w>
ar gue</w>
ail ing</w>
sail ors</w>
o ch
o a</w>
k ov</w>
dam aging</w>
Con serv
sen sus</w>
sac ri
re ig
hon ors</w>
do s</w>
belong ing</w>
b is
au st</w>
F ish</w>
D in
north eastern</w>
j ew
f old</w>
b ag
Hen derson</w>
Com position</w>
th ic
il and</w>
list en
h oods</w>
fre e
encoura ge</w>
c ock</w>
antas tic</w>
Fa ther</w>
Ed mund</w>
psychi at
desi red</w>
archae ological</w>
U sing</w>
we b</w>
w et
reluc tant</w>
pri ority</w>
ain s</w>
Bla ir</w>
ver sus</w>
shel ter</w>
de z</w>
c ade</w>
aw aren
awaren ess</w>
Retur n</w>
prev enting</w>
phenomen on</w>
Del ta</w>
un successfully</w>
ti lla</w>
n ick
myster ious</w>
licen sed</w>
dispat ched</w>
T ed</w>
Sp rings</w>
Sa x
Leic ester</w>
St an</w>
R O
v enture</w>
sil ent</w>
Z o
Th ere
Richard son</w>
hypo thesis</w>
belong ed</w>
Sol ar</w>
An dro
swit ched</w>
o y
leng ths</w>
co aching</w>
c ow
Ver onica</w>
P ink</w>
wit ness</w>
w ashed</w>
scienti st</w>
no ble</w>
m im
k at
inha bited</w>
cur ve</w>
O h</w>
Mar qu
Compu ter</w>
tu rer</w>
ali zing</w>
Palest ine</w>
Ch et
' Brien</w>
pover ty</w>
ingu ished</w>
feat s</w>
en g</w>
S ri</w>
S as
K im
Ar chae
vi ously</w>
h en</w>
execu tives</w>
eigh teen</w>
direc tions</w>
corrup tion</w>
cho ir</w>
Sol om
S l
si um</w>
h ate</w>
Gro ve</w>
Cryst al</w>
a ur
M S
Is les</w>
Fis her</w>
score r</w>
mechan ics</w>
contribu ting</w>
Pun k</w>
Head quarters</w>
ke e</w>
expl oration</w>
expec tations</w>
W ell</w>
Hun t</w>
Craw ford</w>
7 50</w>
187 3</w>
sem i
hor n</w>
bil ls</w>
b ond</w>
Ran ge</w>
sol ve</w>
proced ure</w>
2 30</w>
188 2</w>
run k</w>
inter nationally</w>
Nic ol
F an
187 1</w>
sc hi
regi ster</w>
mu da</w>
car ved</w>
sa ving</w>
d it
Vo y
r ally</w>
obj ectives</w>
aw a
El len</w>
wh ales</w>
my stery</w>
m bar</w>
impro ving</w>
guit ars</w>
ce iling</w>
advoc ated</w>
Hea vy</w>
Fis cher</w>
F landers</w>
E ight</w>
186 7</w>
mar tial</w>
di al
d oms</w>
ab undant</w>
Tru man</w>
Paraly mp
P a</w>
tran sp
tiv als</w>
t asks</w>
st aying</w>
ch ord</w>
agre ements</w>
Z im
set tle</w>
chann els</w>
Tel egraph</w>
Meg a</w>
Fil ms</w>
sub merged</w>
quali fication</w>
Un it</w>
C lo
un ci
po ds</w>
p seu
habit ats</w>
discus sing</w>
Mil an</w>
z on</w>
requi rement</w>
m ood</w>
ech es</w>
í n</w>
tem ples</w>
ol ly</w>
mom ent
accept ance</w>
Whit e
U N
T ir
Comm ons</w>
Ca es
ro ot</w>
fundam ental</w>
func tional</w>
ec ules</w>
dynam ic</w>
cru cial</w>
187 8</w>
stea dy</w>
re son
or ia</w>
horse power</w>
cu bic</w>
ari us</w>
m our</w>
ed ges</w>
Depu ty</w>
Bei jing</w>
see ds</w>
part ners</w>
o z</w>
acri tic</w>
V ul
T ob
Cul ture</w>
B us</w>
b au
est ates</w>
de als</w>
com prised</w>
S ou
spec ulated</w>
refuge es</w>
rec ep
r ington</w>
block ade</w>
ast er</w>
ash i</w>
P ly
opini ons</w>
intellig ent</w>
compos ers</w>
amp ire</w>
Na tion
evid ent</w>
cop y
coll ecting</w>
New man</w>
H ey
Coun t</w>
res emble</w>
oc ese</w>
frag ments</w>
el eph
M ain
Ch ester</w>
hi er
com mu
L ang
For mer</w>
Ex pe
under took</w>
teach ers</w>
plan ted</w>
aver aged</w>
ac he</w>
Trin ity</w>
Juli an</w>
G au
ro b
immig rants</w>
i Tunes</w>
end a</w>
T S</w>
N ak
2 5th</w>
re bel</w>
prin ts</w>
necess arily</w>
Tu cker</w>
Tot al</w>
S .
Lu ftw
G ru
D ea
B ar</w>
turb ines</w>
sing ers</w>
ru shed</w>
pp en
pos thum
osau r</w>
manufac tured</w>
differ enti
c ann
S part
M ill</w>
Can yon</w>
c on</w>
Min or</w>
H and
Gib son</w>
cont ested</w>
consi st</w>
com promise</w>
cam eo</w>
aw n</w>
Guad al
C lif
compla ints</w>
M ick
tre at</w>
str ings</w>
r é</w>
ov en</w>
ma ster
fem in
d ome</w>
ass ets</w>
a via</w>
Wat son</w>
Kep ler</w>
ro s</w>
par am
net works</w>
gau ge</w>
dis solved</w>
K ö
ph on
ox id
man ages</w>
her oes</w>
est y</w>
con sequences</w>
H ood</w>
Dow n
Des ert</w>
A dul
under water</w>
rel ating</w>
coast line</w>
U B</w>
Met acritic</w>
psych ological</w>
mini str
li ons</w>
ensu ing</w>
an gular</w>
absol ute</w>
Well ington</w>
Sur vi
I g
C av
vari ant</w>
sym bols</w>
erup tion</w>
Al pha</w>
read er</w>
ici ency</w>
hon orary</w>
cir cles</w>
a ks</w>
Z i
Wol f</w>
Profes sional</w>
M obile</w>
Luftw affe</w>
J am</w>
A U</w>
tri ps</w>
t ough</w>
nam ents</w>
gros sed</w>
go dd
godd ess</w>
g ear</w>
cot ton</w>
bank rup
Ber muda</w>
w right</w>
ut ely</w>
leng thy</w>
con sensus</w>
S mi
Pro gre
Aar on</w>
reli ed</w>
com pati
Ob serv
str o</w>
sli de</w>
s ar
mon arch</w>
lem urs</w>
kel ey</w>
igg ins</w>
cul tures</w>
w ra
en to</w>
ad ds</w>
Wal t</w>
Du dley</w>
Cur tis</w>
remark able</w>
em ig
discipl ine</w>
cli ff</w>
bi ous</w>
ar istoc
sign als</w>
m es
bacter ia</w>
R ag
Mon um
Lab or</w>
H in
unve iled</w>
re serves</w>
lan dings</w>
is ations</w>
P ast</w>
L or
18 60</w>
w ill
quali ties</w>
el dest</w>
batt lefield</w>
Ril ey</w>
Mil ls</w>
Li on</w>
Eag le</w>
Ang le</w>
un d</w>
ti us</w>
ro ok
ass essment</w>
187 2</w>
st rict</w>
r ator</w>
fl exi
Sel ena</w>
N ash</w>
Mon ster</w>
Aguil era</w>
186 8</w>
se al</w>
scre ens</w>
int act</w>
contem por
Not able</w>
Cho ice</w>
doc tors</w>
def enses</w>
s worth</w>
milli ons</w>
inter actions</w>
certain ty</w>
battlecru isers</w>
Ot to</w>
L S
Engine ering</w>
D S
emo tions</w>
ay an</w>
al g
Kir k</w>
liter ally</w>
k ies</w>
compar able</w>
a tion
Vari ous</w>
Ta ke</w>
M am
tra dem
p ounder</w>
mol ecules</w>
en able</w>
compar ing</w>
Wol ver
ul ly</w>
ir d</w>
gh tly</w>
fl esh</w>
Tai wan</w>
At t
spect ators</w>
song writing</w>
har t</w>
eng aging</w>
cost umes</w>
cor n</w>
Wat ers</w>
13 5</w>
poli tically</w>
enorm ous</w>
dwar f</w>
Hon or</w>
Fl ames</w>
Bar on</w>
tw entieth</w>
ci an</w>
Con t
ta iled</w>
on ics</w>
f t
e k
Fem ale</w>
Cab inet</w>
explo sive</w>
ep er</w>
cli p</w>
am id
Mon roe</w>
B au
Adel aide</w>
Mar cus</w>
Dak ota</w>
Brow ns</w>
A N
revi ved</w>
deal t</w>
bat sman</w>
an ic</w>
suff iciently</w>
patro ls</w>
instruc ted</w>
at ar</w>
appe aled</w>
accept able</w>
Rena issance</w>
stab il
oper ative</w>
ne ath</w>
inv ented</w>
P S</w>
u ous</w>
ton ium</w>
high light</w>
an al
sp ell</w>
instru mentation</w>
Stand ard</w>
Ka iser</w>
top ic</w>
sk y
oc cer</w>
enro lled</w>
Sovi ets</w>
Oly m
New port</w>
Gen esis</w>
El lis</w>
Ab ra
un k</w>
re ha
ing o</w>
horizon tal</w>
disea ses</w>
W ings</w>
St age</w>
Mach ine</w>
Chand ler</w>
st um
al istic</w>
V oc
Lei gh</w>
G round</w>
tac tical</w>
mist ak
list en</w>
k o
h urricanes</w>
H oo
F av
voc alist</w>
mis s</w>
l as</w>
i tion</w>
fe u
chap ters</w>
bal d</w>
Sh ort</w>
Geoff rey</w>
Dani els</w>
refer ee</w>
ra w</w>
ur red</w>
s lower</w>
attrac tive</w>
J G</w>
ter med</w>
reminis cent</w>
re paired</w>
p es
mix es</w>
lic k</w>
k is
h ook</w>
deploy ment</w>
bas si
Offic ial</w>
But ler</w>
le ys</w>
inter sections</w>
exhi bited</w>
W rest
St r
Max well</w>
ti fy</w>
missi le</w>
declar ation</w>
contrac ted</w>
b lan
alleg ations</w>
Sur rey</w>
Sp it
Qu est</w>
Bar rett</w>
rit ual</w>
portra y</w>
moun t</w>
li ver</w>
cl an</w>
cal yp
b ital</w>
There fore</w>
Plan et</w>
z ig</w>
w ishes</w>
f it
air field</w>
Mar l
Ferdin and</w>
over come</w>
mist ake</w>
mas ses</w>
invol ve</w>
gam ing</w>
N ept
Hol oc
sw ick</w>
mush room</w>
mathema tics</w>
lig ence</w>
inter ference</w>
ack er</w>
sic a</w>
n ate</w>
f i</w>
es cal
dis liked</w>
am bassador</w>
Ply mouth</w>
L il
tre a
si eg
sac rifice</w>
ou ted</w>
ner vous</w>
c ling</w>
Mad rid</w>
Game Spot</w>
i fied</w>
g allery</w>
exp ect</w>
Mc Cl
E in
tis an</w>
quanti ties</w>
heal thy</w>
ti um</w>
S ophi
On line</w>
H anc
18 50</w>
k l
au dition</w>
WW F</w>
su its</w>
proc eeds</w>
la kes</w>
har m</w>
fri gate</w>
Th under
T ab
Shel ley</w>
tro op</w>
syn drome</w>
exp ense</w>
deman ding</w>
B all
verte br
p et</w>
Bur ger</w>
nickn amed</w>
cali ber</w>
G et
F eli
Es sex</w>
Di vi
Bos nia</w>
suppor ter</w>
op ted</w>
P ha
Mast ers</w>
L es</w>
J .
Con temporary</w>
Avi ation</w>
17 5</w>
spea ker</w>
ro ck
machin ery</w>
im ported</w>
grav ity</w>
Sp encer</w>
M VP</w>
Hanc ock</w>
pan els</w>
locomo tive</w>
l ance</w>
inter viewed</w>
gu ided</w>
al be
Bri gadier</w>
tr o</w>
it ly</w>
gra tion</w>
s ch</w>
ro cket</w>
ren e</w>
hol der</w>
ber y</w>
Rom ans</w>
P at</w>
on ey</w>
acqu ire</w>
M r</w>
Flo rence</w>
na tives</w>
la ying</w>
cust ody</w>
comment ators</w>
L ock
y l
shop ping</w>
gh ted</w>
conven i
ad mir
L om
proxim ity</w>
jo ke</w>
em ingly</w>
L um
Com pl
z ers</w>
l ton</w>
al located</w>
Bald win</w>
z ones</w>
te ach</w>
pron ounced</w>
ou ting</w>
S af
Jer emy</w>
curren cy</w>
ba si
al is</w>
Admir alty</w>
wh ale</w>
t less</w>
spor ting</w>
s ar</w>
mil k</w>
mani f
Li v
il led</w>
cur ves</w>
X X
Vi enna</w>
U sher</w>
Rea ding</w>
D um
By r
Brow n
Ag ricul
ep i
enni fer</w>
be st
be d
Publi shing</w>
J ennifer</w>
Her gé</w>
C um
Ark ansas</w>
en c
coun try
T ales</w>
S na
L ess
I S</w>
cl am
avi ation</w>
Rom ania</w>
P ass
Ar ticle</w>
succ essive</w>
st le</w>
separ ately</w>
ru lers</w>
c rit
Mar ket</w>
Co de</w>
Bank sia</w>
un aware</w>
ti ble</w>
el ding</w>
St ories</w>
No bel</w>
Mov ement</w>
won der
pu zz
dro ps</w>
diagno sed</w>
boar ding</w>
P ine</w>
M é
D I</w>
mem ories</w>
ic on
Ur ban</w>
Se as</w>
Com bat</w>
tre sses</w>
tre m
s day</w>
j aw</w>
g ang
O ma
Ma il</w>
y u
ste ep</w>
pre liminary</w>
hom eless</w>
hi de</w>
ga thering</w>
discus sions</w>
ang les</w>
Philli ps</w>
Nor se</w>
K nights</w>
Is lam</w>
scre ening</w>
publi sh</w>
provi sion</w>
ob stac
em at
app a</w>
Y ellow</w>
Ser b</w>
Hol land</w>
187 9</w>
trac king</w>
N ash
f eld</w>
f arms</w>
bas sy</w>
ad mi
W oods</w>
S es
Min ogue</w>
scra pped</w>
know ing</w>
in tim
Gl en</w>
scrip tions</w>
regar dless</w>
instal lation</w>
ed iting</w>
cylin der</w>
ambi tious</w>
J ag
Comm unic
north western</w>
gu ed</w>
McC ain</w>
Electr onic</w>
Cha se</w>
str ating</w>
li p</w>
dic ally</w>
demon strate</w>
blin d</w>
ac o</w>
V H
Pre ston</w>
dis continued</w>
adv ances</w>
Sk inner</w>
mass acre</w>
dam ages</w>
crow ned</w>
R C</w>
New found
Hawai ian</w>
H es
C un
All music</w>
tou rism</w>
stel lar</w>
U 2</w>
Bow ie</w>
y e</w>
mu d</w>
ec tors</w>
desc ended</w>
Le op
proc eed</w>
o ak</w>
hal ted</w>
at on</w>
Chi le</w>
thro at</w>
ph ers</w>
gu ez</w>
di stor
Sal t</w>
ra tional</w>
ninet eenth</w>
l er
flo ors</w>
ann ex
Me di
H au
reg ained</w>
gain s</w>
b oun
appreci ated</w>
Vi et</w>
Spec i
u prising</w>
top es</w>
t rick</w>
se emingly</w>
neighbour ing</w>
fil ling</w>
enthusias tic</w>
P ick
wid ow</w>
t reas
har bor</w>
Su ff
Newfound land</w>
McCar thy</w>
Mc Donald</w>
Lan caster</w>
pro jected</w>
Sen ior</w>
Sc and
R oc
prot ecting</w>
k en
disp utes</w>
administ ered</w>
a si
Tur ks</w>
S H</w>
volcan o</w>
tro phy</w>
to t
skel eton</w>
mat ched</w>
less ons</w>
k it</w>
el low
di ving</w>
cre ates</w>
ack ers</w>
th es
olog ically</w>
Beau tiful</w>
te a</w>
st air
open ly</w>
lu x
k as</w>
descend ants</w>
da e</w>
tran sit</w>
ro ller</w>
priv ately</w>
mort ality</w>
lac ks</w>
ini um</w>
b arely</w>
atmo spheric</w>
Gon z
Co x</w>
u b
prospec t</w>
jum ping</w>
er als</w>
to tally</w>
streng then</w>
sen s
pro ph
pla u
f ing
co operation</w>
cap tivity</w>
Sing le</w>
1 27</w>
u k</w>
tu ary</w>
ra pper</w>
north westward</w>
n us</w>
Sen ators</w>
Lou is
Com b
win d
st am
per pet
fin ite</w>
deep er</w>
cor ridor</w>
col oured</w>
bu st</w>
ac le</w>
Circu it</w>
Buddhi st</w>
ne sts</w>
inc redi
conver t</w>
th y
re su
out door</w>
ou ri
farm ing</w>
et us</w>
Moun ted</w>
Jan et</w>
Carol ine</w>
ig a</w>
gen es</w>
atom y</w>
ar ed</w>
Sp ong
succ eed</w>
pr inc
in fer
ib n</w>
hor ri
deleg ation</w>
Lou ise</w>
L op
Diam ond</w>
3 30</w>
ha i</w>
del ays</w>
ar ray</w>
U P
Lo w</w>
H ell
m ly</w>
hybri d</w>
bu sy</w>
Adv entures</w>
mem orable</w>
for tune</w>
co alition</w>
cont ing
L ogan</w>
Gener ation</w>
g ren
ent ine</w>
Mar sh</w>
Capit ol</w>
re sur
isph ere</w>
develop er</w>
bur st</w>
Si erra</w>
Nash ville</w>
10 9</w>
fat alities</w>
f ears</w>
cu lar</w>
Regi on</w>
Produc tions</w>
v ak
st ag
perfec tly</w>
exc essive</w>
declar ing</w>
d ra</w>
T rac
jo kes</w>
gh ty</w>
as a</w>
Wea ther</w>
qu it</w>
a er
F ic
Bla ke</w>
Ath en
par as
man ned</w>
intro ducing</w>
gh s</w>
Ro sen
H og
All Music</w>
x ton</w>
th ed</w>
teamm ates</w>
ram id</w>
aw s</w>
ambi gu
Tim ber
Pla za</w>
Emil y</w>
Commission er</w>
thic kness</w>
tel s</w>
prohi bited</w>
ov sky</w>
el lation</w>
e er</w>
b ours</w>
ay e</w>
ath letic</w>
ad i</w>
Air borne</w>
1 11</w>
z i</w>
photogra ph</w>
mis sioned</w>
fur n
div ine</w>
Wil l
Wh y</w>
S K</w>
L i</w>
J um
Edmon ton</w>
2 70</w>
strugg ling</w>
cla d</w>
achel or</w>
Willi am
Par achute</w>
ti fic
spea kers</w>
sop hi
six ty</w>
sc ep
ro y</w>
recogni ze</w>
re served</w>
Prot ection</w>
Con sequently</w>
2 10</w>
pregn ancy</w>
oper ator</w>
hon ours</w>
aggre gate</w>
Par amount</w>
reali zes</w>
pl er</w>
d un
S ter
H ard</w>
Gar field</w>
w ound</w>
stre ams</w>
pp ers</w>
po se
perc ussion</w>
elimin ate</w>
R .
Mau rice</w>
Dram a</w>
Bus ch</w>
Mar c</w>
H ai
C oc
stri pped</w>
acquisi tion</w>
Man ning</w>
M oo
Indu strial</w>
tra its</w>
story lines</w>
plac ement</w>
g g</w>
empha sized</w>
In c</w>
Cha irman</w>
A M</w>
merchan ts</w>
gre en
fin dings</w>
M .
sur faces</w>
oper as</w>
bro ok</w>
B arri
quali fy</w>
in complete</w>
har sh</w>
for k</w>
draw s</w>
bish ops</w>
F ru
un usually</w>
flu id</w>
f itting</w>
colli sion</w>
C O</w>
sh y</w>
philosop hi
org ans</w>
g or
at ro
ar bit
Spong e
Per th</w>
Mo tion</w>
Gri ffin</w>
lim bs</w>
k itchen</w>
flo ating</w>
Sch u
E C</w>
Ch ancellor</w>
Ar ctic</w>
187 4</w>
tox ic
rever sed</w>
qu et</w>
proc e
proce edings</w>
let cher</w>
k h
exper ts</w>
con junction</w>
an no
Tas man
S et</w>
Pan ama</w>
18 48</w>
suff er</w>
scen ario</w>
pack age</w>
lu de</w>
b lown</w>
adap tations</w>
v ow
mul a</w>
gran ts</w>
con stra
ru ins</w>
legi ate</w>
fat al</w>
distingu ish</w>
chan ces</w>
avi an</w>
T ren
Fran co</w>
D ro
sub stance</w>
restaur ants</w>
gener als</w>
as tic</w>
Ste in
R S</w>
Fin nish</w>
ten nis</w>
p ly</w>
met ropolitan</w>
an them</w>
Ri ght</w>
P eg
n t</w>
n olds</w>
motor way</w>
in sufficient</w>
T rou
Ste el</w>
Star ting</w>
Or thodox</w>
adop t</w>
Ra il</w>
Pre par
Mo z
z ac</w>
sh ments</w>
se iz
pres sing</w>
m our
inf ected</w>
aly sis</w>
Wind sor</w>
Michel le</w>
H .
Dam age</w>
B L</w>
veter ans</w>
sty li
rest ra
n ets</w>
lif estyle</w>
alleg edly</w>
Sc out</w>
No thing</w>
Ex am
Armen ia</w>
wor ried</w>
ti des</w>
th en
sta tic</w>
sophi stic
mo des</w>
dic ul
det ached</w>
ass essed</w>
Lind wall</w>
Jun ction</w>
Jacqu es</w>
o irs</w>
nation alist</w>
gra in</w>
en ship</w>
at em
Lar ge</w>
H ast
C anc
B ig
x ili
tun nels</w>
t son</w>
progre ssion</w>
diff er</w>
clim bing</w>
V ick
Beng al</w>
post pon
fes tivals</w>
de an</w>
Hol mes</w>
For mula</w>
Cap ital</w>
hi ding</w>
demon stration</w>
Po e</w>
Met al</w>
Kore ans</w>
incorpor ates</w>
hau l</w>
ero sion</w>
compu ters</w>
Solom on</w>
Ben e
sugg es
s an
it t</w>
att achment</w>
Tun nel</w>
Ed win</w>
subur b</w>
run ners</w>
fa ith
Gu atem
ö r
spe eches</w>
re j
plu tonium</w>
mu zzle</w>
is ons</w>
ci um</w>
bi ographical</w>
Fer gu
view er</w>
to s</w>
op sis</w>
mon itor</w>
inter net</w>
favoura ble</w>
Ri f
G ay</w>
A P
min i</w>
gen e
d awn</w>
ari um</w>
ar ded</w>
Y a
Rand y</w>
Mon day</w>
L ot
Ba ham
Ara bic</w>
negoti ated</w>
floo ds</w>
ess ay</w>
col ades</w>
b last</w>
Ber keley</w>
Super man</w>
A L
gol f</w>
gener ations</w>
err ors</w>
c it
am endment</w>
O ber
Mon ey</w>
investig ated</w>
dest ination</w>
cent res</w>
c .</w>
U t
Pres ley</w>
Dist ribu
Abra ham</w>
t land</w>
si ves</w>
pre n
plea sure</w>
modi fications</w>
fle e</w>
cont am
confi dent</w>
ci st</w>
Mar tha</w>
reason able</w>
b all
Dre am
up grade</w>
pat ron
mer ger</w>
con fined</w>
V A</w>
T ree</w>
Rec re
è re</w>
camer as</w>
V in
M om
C arri
step ped</w>
accur acy</w>
Stan ford</w>
Rec or
Cu ban</w>
Cla ire</w>
Cham ber</w>
é s</w>
sec uring</w>
hum an
fe ed
et c</w>
am an</w>
U s</w>
Star r</w>
sli des</w>
op hy
Rhode sia</w>
Pier ce</w>
Jenn ings</w>
Hea ven</w>
D ir
Con nor</w>
v et
th oughts</w>
p enter</w>
nea rest</w>
keep s</w>
ham let</w>
Bulg aria</w>
Broad casting</w>
August us</w>
strength ening</w>
back up</w>
Fin als</w>
185 1</w>
em atic</w>
e u</w>
conqu ered</w>
Ron ald</w>
Qu i
I X</w>
D im
Cl oud</w>
Chap man</w>
Ch op
pu shing</w>
main tains</w>
S ut
Qu inn</w>
Del hi</w>
th m</w>
Turn pike</w>
Ir ving</w>
ro de</w>
nor s</w>
log ical</w>
hang ing</w>
elec toral</w>
J i
wi ves</w>
prec ise</w>
gi o</w>
embar ra
cor d</w>
Ru sh</w>
Pri ce</w>
F M</w>
C air
water line</w>
w ed</w>
regu lation</w>
edu res</w>
col leges</w>
al ter</w>
ail s</w>
Review s</w>
Gabri el</w>
Ch en
Ch all
ten s</w>
tel ev
musc le</w>
inv ent
es ome</w>
ens emble</w>
doub les</w>
d al
c tu
Tig er</w>
el derly</w>
Sponge Bob</w>
Ser bs</w>
L ag
ten ds</w>
mar gin
grand son</w>
gradu ating</w>
Y et</w>
L aren</w>
o id</w>
for tified</w>
fla gs</w>
exc iting</w>
citiz en</w>
bon ds</w>
ac tic</w>
Z u
Sub sequently</w>
Shi eld</w>
Lyn ch</w>
C ome</w>
A str
ric ally</w>
mon ks</w>
in put</w>
re w</w>
ow l</w>
Th ings</w>
10 6</w>
z y
sacri fic
el ers</w>
ch er
B ull</w>
A man
3 70</w>
succ esses</w>
ru sh</w>
escap es</w>
at oes</w>
Li ving</w>
Hay es</w>
sw ing</w>
net t</w>
mat urity</w>
incorpor ate</w>
G ang
m in</w>
it em</w>
d ness</w>
care fully</w>
cal cu
bri gades</w>
N ol
2 80</w>
ram p</w>
n u</w>
er man</w>
ben ch</w>
barri er</w>
ann es</w>
Ed gar</w>
Der by</w>
scra p</w>
rook ie</w>
lay out</w>
emb ro
b age</w>
amp a</w>
am or
F letcher</w>
Cl em
sex ually</w>
prof its</w>
mon thly</w>
fron tier</w>
carri age</w>
Spi elberg</w>
Mc K
La ura</w>
F ood</w>
t ance</w>
pul sion</w>
pil s</w>
exc eeded</w>
compens ation</w>
South ampton</w>
C ec
w ounds</w>
q i</w>
it er</w>
hon ored</w>
ep id
eng ers</w>
dar kness</w>
cal m</w>
appoin ting</w>
S mo
P an</w>
Mar ath
D A</w>
10 8</w>
read ily</w>
genu ine</w>
g ett</w>
box es</w>
Bran don</w>
ri ses</w>
m ad
l ingu
hol m</w>
elev enth</w>
de feats</w>
but ter
ay ette</w>
autom atic</w>
Patt on</w>
P irates</w>
Num ber</w>
H off
mo dest</w>
enh ower</w>
con sequently</w>
avail ability</w>
agon ists</w>
Stru c
S our
Bra d</w>
Ad rian</w>
sac red</w>
no tion</w>
mon archy</w>
inv itation</w>
g ations</w>
Sha dow</w>
Sch war
Bol ton</w>
Bang la
ter ly</w>
et t
che z</w>
Mir ror</w>
tr unk
na ked</w>
mil d</w>
mid night</w>
maneu vers</w>
kic ked</w>
imm une</w>
slow ed</w>
shi ma</w>
s mu
organiz e</w>
missi les</w>
ac cu
Ret ri
P ent
N OK</w>
Gu n</w>
Bas in</w>
thir ds</w>
spaw ned</w>
pro li
fi x</w>
est ers</w>
Man ia</w>
Arti llery</w>
tru ste
sy stem
refl ects</w>
pu pils</w>
ford shire</w>
eff iciency</w>
conclu des</w>
con sent</w>
Princi pal</w>
Hend rix</w>
or bital</w>
n om
jer sey</w>
identi fication</w>
employ ee</w>
dis appointment</w>
Me tho
Hop kins</w>
H ass
ti re</w>
pos s
mir ror</w>
enter taining</w>
T ask</w>
Ru gby</w>
Rock y</w>
Kri sh
H ad
Gar dens</w>
C rane</w>
An ti</w>
my th</w>
measu rements</w>
mag ical</w>
line up</w>
in scription</w>
Re sident</w>
M ember</w>
ur o</w>
respec ted</w>
pat ch</w>
o eu
competi tors</w>
at oms</w>
aci ds</w>
We in
Light ning</w>
Kenn y</w>
ul ted</w>
tri bal</w>
ref it</w>
north bound</w>
negoti ate</w>
ho u</w>
dri ves</w>
celeb rity</w>
b u</w>
as i</w>
Lea der</w>
E U</w>
Commer cial</w>
so ap</w>
effec tiveness</w>
contro lling</w>
Treas ury</w>
Eis enhower</w>
Com mo
v ag
de er</w>
con sumed</w>
assu me</w>
Inv estig
inter f
ev o</w>
enjo y
el ded</w>
assign ment</w>
AI DS</w>
sequ ent</w>
al k
aff ecting</w>
S under
physici an</w>
l oud</w>
War saw</w>
Sain ts</w>
S on</w>
N ebra
testim ony</w>
ne gl
h l
en ly</w>
deci ding</w>
ad ministr
a z</w>
St yle</w>
St ore</w>
predec essors</w>
neighbor ing</w>
man tle</w>
gu m</w>
choo sing</w>
carto on</w>
b ra</w>
Stef ani</w>
Lu cy</w>
C ed
w age</w>
strugg les</w>
fem inist</w>
dist ances</w>
con sum
con sol
Rec on
sing ly</w>
sha dow
ro l</w>
proc edures</w>
less ly</w>
d at
cap abilities</w>
Z el
Sus sex</w>
Pri v
N on</w>
Jeff rey</w>
Al most</w>
top ics</w>
reti re</w>
par o
f its</w>
W iz
H ali
G one</w>
Fergu son</w>
D au
un named</w>
ri des</w>
m are</w>
gh an</w>
ester shire</w>
arc ade</w>
Willi s</w>
Rho de</w>
i ć</w>
dra inage</w>
d w
Brit ney</w>
w ouldn</w>
reali ze</w>
co s</w>
Por ter</w>
Guadal canal</w>
Colum bus</w>
rin k</w>
rif le</w>
ke en</w>
be sieg
Uni verse</w>
M W</w>
prec eded</w>
mu tual</w>
moment um</w>
cl ergy</w>
a .m.</w>
Mor ton</w>
Har per</w>
C ast</w>
iso topes</w>
he ating</w>
forec ast</w>
ev ille</w>
de struc
St eam</w>
Man or</w>
E SP
sp are</w>
Vari ety</w>
requ ests</w>
poin ting</w>
illu strations</w>
Rey nolds</w>
East er</w>
rev el
respon si
refer en
inte gration</w>
hard ware</w>
cho ices</w>
Ey e</w>
vers ely</w>
sett ings</w>
R ound</w>
G av
Contin u
An nie</w>
no bility</w>
haw k</w>
en acted</w>
colon el</w>
and o</w>
advoc ate</w>
Se bas
Rus sians</w>
Plac es</w>
H ir
Ca stro</w>
1 13</w>
warri ors</w>
unic h</w>
ther mal</w>
st ering</w>
prot ective</w>
lim itations</w>
haw ks</w>
dimen sions</w>
Nebra ska</w>
M unich</w>
Ci tiz
C ran
progr amm
occup y</w>
o ting</w>
incor rec
d ad</w>
an e
Pow ers</w>
Gre eks</w>
3 0s</w>
teen age</w>
sympa thetic</w>
ma x</w>
lic ation</w>
gover ning</w>
endor sed</w>
distur bed</w>
d man</w>
bassi st</w>
Lithu ania</w>
Bri dg
Bey ond</w>
wel come</w>
ol ine</w>
mani pul
any where</w>
aboli shed</w>
S ite</w>
R ice</w>
H anna</w>
Gar d
F ab
E qu
v re</w>
resemb les</w>
pe dia</w>
fre ight</w>
bu ses</w>
W id
O ld
Le gion</w>
wan ting</w>
under neath</w>
th ood</w>
en forcement</w>
absol utely</w>
C P
persi st
du et</w>
Mun ici
Icel and</w>
u lum</w>
ta ke
speci alized</w>
mas k</w>
j e</w>
es que</w>
cryst al</w>
St am
Intel ligence</w>
10 3</w>
thri ller</w>
o y</w>
jo in
fa il</w>
cou pled</w>
com prises</w>
co sm
Mey er</w>
Lu ci
Lithu anian</w>
Guil d</w>
D P</w>
C and
13 1</w>
ni an</w>
la us</w>
ent on</w>
disc lo
congre gation</w>
ax is</w>
accor dance</w>
Eigh th</w>
twel fth</w>
sh ine</w>
end ar</w>
e aten</w>
Ultim ately</w>
Car ol</w>
C lim
suspec t</w>
sc ales</w>
pro pel
nam ely</w>
i ety</w>
extra ordinary</w>
alli c</w>
Ham mer
B av
secre tly</w>
se di
s ni
nick el</w>
mi tive</w>
lea sed</w>
ga ther</w>
ext ant</w>
athlet e</w>
under lying</w>
municip ality</w>
fac tions</w>
commer ce</w>
Z er
Ven us</w>
Eu gene</w>
Dist inguished</w>
Catholic s</w>
imprison ment</w>
bin ding</w>
bet ra
Der ek</w>
oc y
k h</w>
ev a</w>
a ine</w>
T ang</w>
ra ble</w>
p ep
mit ting</w>
ill o</w>
ha us
fe es</w>
ec k
Ra ther</w>
. 2
saf ely</w>
s sy</w>
rum ors</w>
innov ative</w>
achiev ing</w>
St rong</w>
Glo bal</w>
185 9</w>
se ize</w>
ori als</w>
ol es</w>
extinc tion</w>
b ath</w>
ab e</w>
South east</w>
Rh ys</w>
188 0s</w>
ã o</w>
substan tially</w>
serv ants</w>
le ston</w>
cust oms</w>
c and
S chi
w l</w>
total ed</w>
pra yer</w>
p po
key boards</w>
der ers</w>
Rober tson</w>
Argent ine</w>
rin a</w>
lim estone</w>
gi st</w>
dy s
Ro ads</w>
Hut ch
Gu ards</w>
sum mon
speci alist</w>
sket ch</w>
ro gen</w>
real m</w>
real ised</w>
ou tra
lo g</w>
lit z</w>
cont ents</w>
bl ings</w>
bas ement</w>
sm outh</w>
sex uality</w>
rec oun
gi fts</w>
albe it</w>
N in
Is ab
E vol
C N
Associ ated</w>
subsi diary</w>
sub stitu
re taining</w>
milli metres</w>
intro duces</w>
g lu
den omin
convic tion</w>
Z e
Ul timate</w>
St op</w>
un expected</w>
tra p</w>
res ort</w>
ran dom</w>
deri v
Bor ough</w>
Bla ine</w>
B T</w>
volunte er</w>
repe at</w>
promis es</w>
lem ur</w>
hospit als</w>
fil es</w>
soci eties</w>
perc eption</w>
ha ir
ea e</w>
c oc
N eu
Lin da</w>
G ot
Can ber
B og
thin ks</w>
run way</w>
m ouse</w>
k ick
by e</w>
Tax onomy</w>
Pal mer</w>
pro ven</w>
draw ings</w>
dec eased</w>
Sunder land</w>
Sal is
4 0s</w>
18 5</w>
w r
tou ched</w>
sub urban</w>
p ec
at er
V ish
Sal v
Joy ce</w>
J a
18 45</w>
rein force</w>
mur ders</w>
investig ations</w>
der ness</w>
Out side</w>
G as
valu ed</w>
south bound</w>
gar age</w>
desig ners</w>
compreh ensive</w>
T at
St at
D anu
ver n</w>
sum mary</w>
ini on</w>
Salis bury</w>
Gam eplay</w>
Daw n</w>
tradem ark</w>
ti st</w>
ti red</w>
sym met
fr ames</w>
es man</w>
Vi ol
Tru th</w>
F at
Com ic</w>
Cam bo
Bri ghton</w>
in struction</w>
g ons</w>
fa ke</w>
Scou ting</w>
R é
Jo el</w>
2 60</w>
in ter</w>
helicop ters</w>
Tru e</w>
Sla m</w>
L as
Jac ob
D el</w>
wor lds</w>
ra pe</w>
ju dged</w>
intercep ted</w>
inflic ted</w>
confron ted</w>
Jenn a</w>
v ae</w>
t ool</w>
fresh man</w>
dom ain</w>
cont rary</w>
Less er</w>
wat ches</w>
st rous</w>
o ci
it er
Willi e</w>
Timber lake</w>
P re</w>
L az
G ot</w>
C en
Ax is</w>
15 2</w>
z h
sol utions</w>
ec lip
dor sal</w>
Sound track</w>
RI AA</w>
Mal ay</w>
Holoc aust</w>
H IV</w>
t ales</w>
sevent een</w>
resol ve</w>
judg ment</w>
in quiry</w>
high lights</w>
Sh in
tenden cy</w>
pro por
per mit</w>
mil ls</w>
coff ee</w>
ab ad</w>
K ap
Domin ican</w>
Ar ms</w>
w er
gen ius</w>
fe at</w>
cau tion</w>
ash ing</w>
Su e</w>
Re ich</w>
Rac ing</w>
R T</w>
Fra ser</w>
Ara bian</w>
1 12</w>
v acc
tox ic</w>
pro secution</w>
poss ess</w>
pit ching</w>
mon sters</w>
eb ack</w>
Whit ney</w>
Lt d</w>
I b
Bu enos</w>
hy m
S ay</w>
Na than</w>
Dou ble</w>
stop ping</w>
ogra m</w>
ic on</w>
decom missioned</w>
contra dic
Port smouth</w>
Nor ton</w>
Man ager</w>
pain ter</w>
adm ired</w>
.. ..</w>
ski ing</w>
referen dum</w>
diagno sis</w>
Du ch
Dis cover
Bel le</w>
z ard</w>
v ent</w>
s ants</w>
pi an
k ley</w>
amaz ing</w>
La f
Glen n</w>
pa res</w>
p roud</w>
gg er</w>
fri ed</w>
ann ers</w>
ancest ors</w>
adv entures</w>
Mah on</w>
t ent</w>
monum ents</w>
conduc tor</w>
coll ective</w>
ab ling</w>
Sco tia</w>
Peter sburg</w>
Lo is</w>
rec ap
pat ron</w>
na vig
cre am</w>
bo tan
E st
refu ge</w>
et al</w>
crow ds</w>
clu ster</w>
bal lot</w>
Elli ott</w>
t ables</w>
motiv ated</w>
milli meter</w>
ex port</w>
dep ends</w>
an tum</w>
S ee
S ad
Non etheless</w>
14 5</w>
super v
subur bs</w>
per former</w>
pat ches</w>
organ isations</w>
equ ality</w>
end angered</w>
care ers</w>
adop tion</w>
Be sides</w>
p enn
hom age</w>
citiz enship</w>
Sic ily</w>
Sha h</w>
J ur
Ferr ari</w>
Az er
Ex pres
B ailey</w>
wi e</w>
po d</w>
conclu ding</w>
Scand in
For bes</w>
Dur ham</w>
spon tan
sp l
re sign</w>
mathema tical</w>
ign ty</w>
h es
et es</w>
en gra
bar racks</w>
Oma ha</w>
N y
Lu is</w>
In formation</w>
ret ali
cri p
an archi
Gal il
Econom ic</w>
vari eties</w>
s ement</w>
ph ones</w>
ff er</w>
fav oured</w>
Hum ph
A part</w>
vis uals</w>
ti ans</w>
the or
in c</w>
her al
R as
Per i
Per f
K n
K aren</w>
Hu go</w>
Engine ers</w>
t ary</w>
o x</w>
in ev
en ever</w>
country side</w>
convinc ing</w>
a di
Se x</w>
Bo dy</w>
su ed</w>
season al</w>
gover ned</w>
fer ences</w>
din osaurs</w>
depar tments</w>
comm ended</w>
b ane</w>
Vol un
Histor ian</w>
z e
ra in
oo s</w>
he m</w>
goal keeper</w>
f rat
econom ics</w>
cab in</w>
an on</w>
xili ary</w>
un happy</w>
star ter</w>
gh er</w>
ec cent
col league</w>
S MS</w>
Air craft</w>
stu ck</w>
sh man</w>
scop ic</w>
is c
he ated</w>
es day</w>
enti ty</w>
acc o</w>
M end
w are
recei ver</w>
let t</w>
g edy</w>
en ne</w>
Kir k
F en
stom ach</w>
st en
refl ecting</w>
puzz les</w>
og rams</w>
democ racy</w>
U m
1 200</w>
install ment</w>
domin ance</w>
bit ter</w>
St ep
Po st
Philipp ine</w>
P age</w>
More over</w>
C oul
Arti st</w>
ug u</w>
doub led</w>
acceler ated</w>
Mum bai</w>
Baham as</w>
Assi stant</w>
15 5</w>
tal ked</w>
sla u
sec ular</w>
reha bil
phy si
key board</w>
is cop
incorpor ating</w>
cha ins</w>
Lo dge</w>
Au sten</w>
wood land</w>
u x</w>
ter restrial</w>
pha ses</w>
el eg
correspon dence</w>
P har
Mon ica</w>
M A
Canber ra</w>
observ ers</w>
no tic
n g</w>
lu lar</w>
ev ing</w>
bor rowed</w>
aver aging</w>
Tor res</w>
Sing h</w>
Prussi a</w>
j ail</w>
explic itly</w>
ad oes</w>
Ru ther
Angel a</w>
v or
sha w</w>
mari time</w>
lu ence</w>
am ino</w>
Z a
Web ber</w>
185 4</w>
sil ence</w>
pol i</w>
persi sted</w>
per forms</w>
medi an</w>
exag ger
end ers</w>
dow ned</w>
activi st</w>
Pop ular</w>
Lop ez</w>
K as
3 20</w>
unci ation</w>
l ords</w>
con serv
affili ated</w>
R overs</w>
185 7</w>
si blings</w>
shor tened</w>
pre servation</w>
num er
juven ile</w>
business man</w>
To o</w>
Caes ar</w>
ste ering</w>
sm alle
lea ked</w>
guaran te
exhi bits</w>
edit orial</w>
comm it</w>
18 40</w>
re marks</w>
princi p
me time</w>
en sured</w>
det achment</w>
char ting</w>
Sy rian</w>
Pear son</w>
Com par
un ton</w>
sh ua</w>
pro pri
pla stic</w>
fru strated</w>
fail s</w>
dre ams</w>
config uration</w>
K is
Distribu tion</w>
Ai res</w>
tor n</w>
s als</w>
pre cur
or ph
mor ale</w>
ll i</w>
gr ams</w>
compl ement</w>
c um
Wo ol
Di ana</w>
Democ rat</w>
B li
vari ants</w>
pres enting</w>
or bits</w>
el o
d op
Recre ation</w>
Ham mond</w>
Gi ant</w>
trans l
sub tle</w>
s ounded</w>
enz y
Vol ume</w>
Sh ack
Ne ill</w>
u ff
thru st</w>
lin king</w>
fla sh</w>
exc ited</w>
el ia</w>
dis agreed</w>
continu ously</w>
Tw enty</w>
N ME</w>
vest ock</w>
tri logy</w>
inten tions</w>
ic king</w>
dis k</w>
bi ans</w>
ber ing</w>
avo iding</w>
Ham burg</w>
16 5</w>
tic ul
sk illed</w>
determin ation</w>
T ampa</w>
New ark</w>
Cru z</w>
vak ia</w>
slo pes</w>
plo ts</w>
n ée</w>
low ered</w>
exp elled</w>
ali ens</w>
ac les</w>
Jo shua</w>
Fran z</w>
te x</w>
re ward</w>
north eastward</w>
ma id</w>
lea ther</w>
immig ration</w>
id ity</w>
develop s</w>
descrip tions</w>
bli cal</w>
Rol l</w>
Jes se</w>
v ali
re united</w>
pois oning</w>
per ed</w>
in ability</w>
a res</w>
St ran
Pla ying</w>
K id</w>
Di ệ
Col lec
ri ch
lu min
lar ged</w>
inf ant</w>
id al</w>
found ations</w>
est ament</w>
Gen e</w>
Dou g</w>
stret ched</w>
portra ys</w>
ol k</w>
hon est</w>
en ant</w>
cli ffe</w>
be ds</w>
Fran ç
Ber ry</w>
reg ain</w>
out lets</w>
hur st</w>
cham bers</w>
boo m</w>
ap ologi
Pi x
N either</w>
tru mp
scre ened</w>
la ir</w>
la dy</w>
f ever</w>
cr yp
after ward</w>
Wat ch</w>
Mo del</w>
Ma ke</w>
G ates</w>
D ale</w>
Com pton</w>
shel ters</w>
persu ade</w>
mu t
bic y
Tal k</w>
Hol den</w>
Hi ro
Diệ m</w>
ul ls</w>
t ing
sa ves</w>
reti ring</w>
promin ence</w>
jo y</w>
ish i</w>
fi a</w>
de pot</w>
Dest iny</w>
t .</w>
responsi bilities</w>
lar vae</w>
fun k</w>
d ental</w>
coast er</w>
cinem at
bow ler</w>
X III</w>
ton gue</w>
sig ni
oo m</w>
ma ke
fri gates</w>
ber ger</w>
attribu tes</w>
Stra it</w>
Du chess</w>
Adul t</w>
ven ing</w>
pri mitive</w>
ol l</w>
anc he</w>
P han
ou fla
fre ely</w>
coun ted</w>
big ger</w>
Sav age</w>
symbo lic</w>
narrow ly</w>
n n</w>
ha ble</w>
det on
ac ute</w>
In g
over time</w>
ha ven</w>
S wan
M aple</w>
Cla u
Bec k</w>
Ash ley</w>
Ar med</w>
tra ils</w>
smalle st</w>
sm a</w>
i to</w>
gr ound
fra ud</w>
att en
Co sta</w>
ur i</w>
sac ked</w>
photo s</w>
st airs</w>
roof s</w>
man oeu
gradu ation</w>
gi ous</w>
en larged</w>
Writ ers</w>
C s</w>
manu scripts</w>
lo ves</w>
Scho ols</w>
Know les</w>
Han nah</w>
Gaz a</w>
G host</w>
B ee
es y</w>
Hi p</w>
Dod gers</w>
185 8</w>
pi er
oc ene</w>
med ley</w>
ili on</w>
gener ic</w>
fil ter</w>
Sm y
Retri eved</w>
Monum ent</w>
t ones</w>
t ent
respon ses</w>
exclu ded</w>
Pro c
Engine er</w>
An til
st ained</w>
sh er
pi er</w>
ob a</w>
min ed</w>
finan cially</w>
expres sing</w>
ent ries</w>
comman ds</w>
ar ding</w>
accep ting</w>
Phi losop
Mov ing</w>
K now</w>
Alexand ria</w>
trans formation</w>
re venues</w>
del u
ab rup
Antar ctic</w>
us al</w>
ti que</w>
s ab
la v</w>
er ie</w>
c rac
Writ ten</w>
U ran
In dividu
D over</w>
z ens</w>
spec trum</w>
sovere ignty</w>
centimet res</w>
bal anced</w>
ar di
Cana di
Bangla desh</w>
ł aw</w>
skir ts</w>
pose dly</w>
po cket</w>
ef ully</w>
depic t</w>
cri min
ar is</w>
accommo dation</w>
Sing er</w>
Hol ly</w>
H ale</w>
Di ff
telev ised</w>
shor tage</w>
releg ated</w>
peace ful</w>
lo ts</w>
laun ching</w>
syn dic
p ir
over saw</w>
li fel
gal axy</w>
dedic ation</w>
convo ys</w>
S z
Mc Mahon</w>
5 50</w>
18 12</w>
wel com
welcom ed</w>
un popular</w>
se gre
quanti ty</w>
pri ests</w>
gener ating</w>
deteri orated</w>
contempor aries</w>
accum ulated</w>
Sna ke</w>
Mo t
C ong</w>
wea ken</w>
v alid</w>
smu gg
phy lo
min ent</w>
enthusias m</w>
defic i
con stel
bl ame</w>
am en</w>
activi sts</w>
Lim ited</w>
Ha ve</w>
0 0
spec ially</w>
fi erce</w>
eng e
ba th
ana polis</w>
Stal in</w>
Ph one</w>
Ob server</w>
Mul ti
Indi anapolis</w>
H im
Cap com</w>
techn ologies</w>
re joined</w>
ord ingly</w>
for bid
Wrest le
T op
Sh ang
Presid ential</w>
I vy</w>
Gi ven</w>
Chap ter</w>
sur ve
stra in</w>
shoc ked</w>
li kes</w>
id ae</w>
dem on</w>
cap s</w>
bor o</w>
Ser geant</w>
F ringe</w>
Danu be</w>
Ba si
tur ers</w>
sentim ent</w>
pol ls</w>
comp act</w>
N ame</w>
H and</w>
B .
par ade</w>
gr ace</w>
Nept une</w>
N O
Mo ren
M ü
A way</w>
tour naments</w>
sophistic ated</w>
ship ments</w>
rela y</w>
bel ong</w>
an onymous</w>
al isation</w>
Shi r
Gu est</w>
Fic tion</w>
C lay</w>
185 6</w>
18 49</w>
. 3
recommend ation</w>
ov ina</w>
manag ers</w>
in ers</w>
din al</w>
b unk
N em
Lan gu
Bre ak
go s</w>
fin s</w>
democ ratic</w>
def ine</w>
cl earing</w>
answ ered</w>
Win chester</w>
Under ground</w>
M a</w>
All an</w>
After wards</w>
sub jected</w>
h en
evacu ate</w>
O ppen
Mas s</w>
Juli a</w>
Hut ton</w>
teles cope</w>
shir ts</w>
sal v
k le</w>
est a</w>
W im
D ata</w>
Cal vin</w>
sha dow</w>
law yers</w>
Cra sh</w>
Bet ty</w>
propel ler</w>
pollu tion</w>
pil gri
nucle us</w>
nar rator</w>
ge ons</w>
est ants</w>
confron tation</w>
commer ci
cas em
Prussi an</w>
K ann
Dy nasty</w>
Cra zy</w>
B O</w>
189 0s</w>
theore tical</w>
pursu ing</w>
ov ich</w>
man or</w>
k an
f lowing</w>
Tha iland</w>
Pl ant</w>
M ut
Heb rew</w>
u pri
ri ots</w>
lo b
land mark</w>
R eli
He ath</w>
wonder ful</w>
super structure</w>
les bian</w>
investig ating</w>
in tri
hy d
displac ement</w>
col o
be ings</w>
Whe eler</w>
Ruther ford</w>
20 2</w>
wel fare</w>
u c
re alism</w>
or dering</w>
kin ds</w>
inten tionally</w>
h ell</w>
cont acts</w>
cat ches</w>
b ler</w>
anti qu
acci dents</w>
a king</w>
Middles ex</w>
In n</w>
G ren
Environ mental</w>
mean while</w>
mean time</w>
communic ate</w>
wrest lers</w>
moun tain
mater i
imag ination</w>
h t</w>
faith ful</w>
ch en</w>
as y
al together</w>
acqu ain
S of
Re id</w>
Gla ss</w>
Discover y</w>
recre ational</w>
overwhel ming</w>
f um
dol ph
compar isons</w>
anch or</w>
adm its</w>
Mi x</w>
C le
ul ating</w>
ste al</w>
ha il</w>
encoura ging</w>
dram atically</w>
crit eria</w>
ch ew
bu ll</w>
aw ak
aver ages</w>
L akes</w>
vir al</w>
under graduate</w>
under go</w>
sa int</w>
review ing</w>
profes sion
postpon ed</w>
new er</w>
Ri vers</w>
Hav en</w>
Brad ford</w>
8 0s</w>
slo pe</w>
ol ph</w>
lau ded</w>
g ills</w>
el ines</w>
bi ology</w>
ann i</w>
af ford</w>
Gen .</w>
AR IA</w>
y ne</w>
tr out</w>
tor ial</w>
ref usal</w>
pre ference</w>
hal t</w>
exp enses</w>
cap tive</w>
arm a</w>
Tra fford</w>
K id
E t
Dar t
tan gular</w>
sil k</w>
sh ale</w>
s p</w>
ren owned</w>
ob serve</w>
moder ately</w>
ep hal
compati ble</w>
Pri mary</w>
Inter ior</w>
wea kness</w>
to ss</w>
re building</w>
dec lining</w>
constitu ted</w>
bre ast</w>
NE S</w>
N ur
Laf ayette</w>
Jes sica</w>
Hali fax</w>
Don na</w>
D ana</w>
Cong re
qu er
anth rop
ac company</w>
Pen gu
Medic ine</w>
Gri ff
E vening</w>
Ang els</w>
oli thic</w>
j ec
ed on</w>
break down</w>
autom atically</w>
Wrestle Mania</w>
N ight
Fre eway</w>
Cel eb
C G
Bapti st</w>
terri ble</w>
plat oon</w>
peri ph
every body</w>
discri mination</w>
Span i
Sebas tian</w>
Rh ine</w>
sen ds</w>
prob able</w>
photogra pher</w>
hun g</w>
det ect</w>
as cus</w>
Ste wie</w>
B ha
B ever
trigg ered</w>
thunder storms</w>
sup posedly</w>
ssi vely</w>
soci alist</w>
manufac turer</w>
cal endar</w>
advertis ement</w>
Sc en
S ay
w ages</w>
tr ace</w>
ri dicul
ori entation</w>
monit oring</w>
lif ting</w>
li br
dec l
chi ev
c ane</w>
Shi p
Ro chester</w>
R are</w>
Nor wich</w>
H ul
pu rely</w>
lo ses</w>
inter ro
indic ation</w>
implem entation</w>
eg er</w>
ch a</w>
S ag
N ab
H M
H A</w>
Commo dore</w>
gu el</w>
dep lo
ad mission</w>
Liter ary</w>
H indu
tru cks</w>
sett ling</w>
scrip ted</w>
recommend ations</w>
ha ul
E rie</w>
smo king</w>
ow ns</w>
inv ested</w>
happ ens</w>
drow ned</w>
ba i
al t</w>
Sur vey</w>
p an</w>
label ed</w>
em i
de pl
W ant</w>
T ina</w>
S port</w>
P and
sum ably</w>
s lot</w>
l ement</w>
inter sec
defin ing</w>
concent rate</w>
ceremon ial</w>
ag ers</w>
Y ank
King ston</w>
Her z
Glou cester</w>
A N</w>
tim ing</w>
s wee
lun g</w>
grand mother</w>
fre estyle</w>
et ti</w>
emo tion</w>
V ince</w>
Sil ver
y o
reg ards</w>
in ous</w>
ic ked</w>
guid ance</w>
Mil e</w>
Har d
Concer t</w>
Canadi ens</w>
But ter
Adv ance</w>
mar ble</w>
harmon ic</w>
bu ying</w>
ab str
S aw
A M
rec tangular</w>
pass ages</w>
o h</w>
gi l</w>
civil ization</w>
ad able</w>
Joh ns</w>
Gard ner</w>
Be ing</w>
Auth or</w>
ov ny</w>
neighbor hoods</w>
it ational</w>
exhau sted</w>
disc oura
com fort</w>
ap point</w>
all a</w>
Shak ira</w>
Po t
F .C.</w>
Duch ovny</w>
B loo
t any</w>
si de
ra v
nation wide</w>
hom etown</w>
fic i
dimin ished</w>
contro ller</w>
Oppen heimer</w>
Dre w</w>
185 2</w>
tis ans</w>
radio active</w>
portra ying</w>
ori ous</w>
on set</w>
ol ate</w>
enzy me</w>
em in
am y</w>
Wy att</w>
W ong</w>
W R</w>
Ho p</w>
B ear</w>
torn adoes</w>
s an</w>
pol es</w>
inv ention</w>
fu sed</w>
em ics</w>
bat smen</w>
W ade</w>
Thor pe</w>
Shar on</w>
K end
Hal lo
Corn ell</w>
Bu d
v ar</w>
ur g
tion ist</w>
ro d</w>
publi shers</w>
ne sting</w>
ili ation</w>
il ia</w>
ic onic</w>
go spel</w>
en closed</w>
J ava</w>
shoo ts</w>
op ter
ap pren
F ace</w>
ob jected</w>
n ant</w>
inc y</w>
det ective</w>
cap ability</w>
Rich ards</w>
L G
J azz</w>
Happ y</w>
tr on</w>
privil eg
manufac ture</w>
in duced</w>
ic ian</w>
cl ear
amp li
Mes o
M k</w>
G ö
stat ute</w>
dra gon</w>
Yank ovic</w>
T r
Re illy</w>
Le on</w>
18 47</w>
se ated</w>
our self</w>
amoun ted</w>
H ep
Fore ver</w>
E S
Co hen</w>
B j
Adri atic</w>
sk ep
re less</w>
philosophi cal</w>
oper ators</w>
o ve</w>
co t</w>
co d
Priv ate</w>
Hind i</w>
Episo de</w>
B es
vertebr ates</w>
recipi ent</w>
ran no
legi tim
hor ns</w>
di esel</w>
confir m</w>
ari zed</w>
Volun te
O il</w>
M ili
Ira qi</w>
Ch ron
Bir ds</w>
l ins</w>
k ar</w>
inst ances</w>
es a</w>
ea sterly</w>
celeb rations</w>
b old</w>
accoun ting</w>
Ma har
D ame</w>
C ly
tor ture</w>
tain er</w>
fortun ately</w>
Wol f
C IA</w>
Bri s
5 0th</w>
pl ant
h ers</w>
g les</w>
f us
dri ch</w>
demoli tion</w>
N im
Louis ville</w>
ra bb
pl ying</w>
film makers</w>
farm land</w>
es on</w>
copy right</w>
complex ity</w>
categ or
Li ons</w>
1 ⁄
pas sion
medi ately</w>
e work</w>
Metro id</w>
Im mediately</w>
Cur rent</w>
An der
ro t</w>
nur se</w>
inter face</w>
b out</w>
Dar ren</w>
Ch ev
Boo th</w>
6 50</w>
185 5</w>
testi fied</w>
sand stone</w>
ic hi</w>
culmin ated</w>
canc ellation</w>
at orial</w>
R esp
My ster
Leb anon</w>
Joh ann</w>
Ch ang
Au t
18 46</w>
18 30</w>
se ums</w>
po ster</w>
on ist</w>
hel ium</w>
concur rent</w>
con sp
St o
F ow
Bo yd</w>
10 7</w>
tu ally</w>
mas h</w>
kn er</w>
ist ed</w>
inno cent</w>
feed back</w>
broad casting</w>
We ber</w>
Mil ton</w>
Mi guel</w>
Dam ascus</w>
viol ation</w>
it ating</w>
du m
cler k</w>
break through</w>
ash es</w>
all on</w>
Rhode sian</w>
Clar k
C C
AC C</w>
th rows</w>
har der</w>
dis charge</w>
cam oufla
Pi ke</w>
F ili
Be hind</w>
1 21</w>
skir mis
s its</w>
re per
gu t</w>
divor ced</w>
bra ss</w>
a ve</w>
Jo ker</w>
Dev on</w>
sub mit</w>
ro bo
fol ded</w>
d ell</w>
cor poration</w>
conc eded</w>
con ve
car ni
bor g</w>
bedro om</w>
ancest or</w>
ag ara</w>
Sh ane</w>
Sau di</w>
R evol
Hast ings</w>
E min
Brun swick</w>
B é
1 17</w>
tra it</w>
sp y</w>
shoo ter</w>
pur ple</w>
prof itable</w>
fi er</w>
don ations</w>
dissip ating</w>
V es
Stu dent</w>
R e</w>
x ing</w>
whe els</w>
ven ess</w>
tra m</w>
tack le</w>
s ade</w>
rub ber</w>
pos sessions</w>
pel ago</w>
m entally</w>
li th
co ached</w>
Zel da</w>
Eur a
Al onso</w>
A side</w>
trac ed</w>
serv ant</w>
sc he</w>
premis e</w>
pe ers</w>
partic le</w>
m el</w>
disc o</w>
clu sters</w>
Sh ow
S word</w>
Jam ie</w>
t ea
ing redi
desper ate</w>
W ang</w>
Si ege</w>
Per u</w>
Lex ington</w>
Ju d
G and
D ex
3 80</w>
un dance</w>
ta res</w>
pa ths</w>
nor ther
cool er</w>
S ex
Nol an</w>
Dog gett</w>
18 32</w>
z z</w>
termin ated</w>
ru ined</w>
pa iring</w>
gradu ates</w>
chi ef
R ama</w>
rit e</w>
perim eter</w>
off spring</w>
n em
lic ate</w>
disrup ted</w>
cu e</w>
boo st</w>
San sk
Li on
J ets</w>
Azer bai
A FC</w>
2 3rd</w>
trac t</w>
nit rogen</w>
long ed</w>
gu ys</w>
di oxide</w>
coun ts</w>
clin ical</w>
2 7th</w>
x e</w>
se aled</w>
satis faction</w>
ren dition</w>
ner ve</w>
mir r
kil ograms</w>
ern ity</w>
Z oo</w>
Saf ety</w>
Mor oc
Ju lie</w>
C had</w>
sp in
ir regular</w>
invest ors</w>
dev ised</w>
decl are</w>
continu ation</w>
comb ine</w>
Ton ight</w>
K un
Ann ual</w>
vir tual</w>
se ating</w>
r u</w>
parall els</w>
lea k</w>
hy dra
def ender</w>
d ining</w>
au ction</w>
archit ects</w>
W inst
Har bour</w>
sle eping</w>
k a
ec cle
cor ners</w>
accu sations</w>
Stock holm</w>
Ger ald</w>
ym es</w>
y ield</w>
ten se</w>
sp ans</w>
pre sumed</w>
d ances</w>
R hy
R ever
Geor gian</w>
Eag les</w>
Ap proxim
li vestock</w>
li ers</w>
ili ght</w>
grou ped</w>
coura ge</w>
ab a</w>
Mer ed
Man sfield</w>
E MI</w>
Cu bs</w>
pi pe</w>
pat ent</w>
open er</w>
nea polis</w>
n most</w>
excep tional</w>
conf isc
accoun ted</w>
Warri ors</w>
Ru pert</w>
N eigh
Min neapolis</w>
His panic</w>
s berg</w>
rou ted</w>
plu mage</w>
pi res</w>
mor tar</w>
gra ss
Wor cester</w>
Ini tial</w>
whe el
remn ant</w>
reli eve</w>
red dish</w>
isol ation</w>
cat aly
Mered ith</w>
Car penter</w>
Bris bane</w>
stric tly</w>
psych ed
posthum ously</w>
pay ments</w>
box ing</w>
aes thetic</w>
M atters</w>
Cas e</w>
A I</w>
vir uses</w>
vic torious</w>
person a</w>
mon o
id an</w>
hear t
do se</w>
colon ists</w>
clo th</w>
bi on</w>
D res
si zes</w>
ll o</w>
ki en</w>
in adequate</w>
bl acks</w>
ab undance</w>
Sec on
P lea
An y
A G</w>
philosop her</w>
n en</w>
ing way</w>
i P
hon ey
fron tal</w>
be aches</w>
aim s</w>
a dic</w>
Metho dist</w>
Lan ka</w>
In deed</w>
Hallo ween</w>
pac ked</w>
d an
commemor ate</w>
Scienti fic</w>
t ling</w>
sel ler</w>
sch emes</w>
resur rec
par ti
n st</w>
model ed</w>
mo sque</w>
land scap
em bo
eigh teenth</w>
Wil dlife</w>
ta il
re peti
lin ea
j u</w>
d evi
be side</w>
Ori gins</w>
M F
In cre
Be atty</w>
ric s</w>
pi e</w>
lan do</w>
g at
e in</w>
de stri
bri a</w>
bal let</w>
announ cing</w>
af raid</w>
K um
un ite</w>
sy l
st unt</w>
pre sumably</w>
plea sant</w>
hi atus</w>
coo king</w>
character ised</w>
bu l</w>
War wick</w>
C lay
2 2nd</w>
185 3</w>
pen alties</w>
guer ri
cla use</w>
North um
F r
ma sters</w>
di ocese</w>
bre ach</w>
Sup porting</w>
Shack leton</w>
Gran de</w>
til da</w>
ti dal</w>
spar ked</w>
ros se</w>
gho st</w>
el les</w>
dis pos
con ning</w>
bre ad</w>
Spec ies</w>
L ich
K em
Ali en</w>
un official</w>
ri dges</w>
instruc tor</w>
c estershire</w>
broad er</w>
Anim ation</w>
un certainty</w>
tific ate</w>
os a</w>
desig ning</w>
con g
aw k
Y ale</w>
Col bert</w>
B east</w>
14 1</w>
1 14</w>
t ears</w>
sc rat
nit ure</w>
li gan</w>
ast ero
Wed nes
Sansk rit</w>
Or lando</w>
Gu err
Ey es</w>
wrest ler</w>
t ying</w>
p ick
ob sol
non etheless</w>
li d</w>
gr at
for gotten</w>
Sub sequent</w>
N P
Kö ni
Hamp ton</w>
Bro ther</w>
19 5</w>
un ted</w>
portra its</w>
o que</w>
ni st</w>
j eal
in fil
emer ge</w>
conven tions</w>
collec tively</w>
as y</w>
accur ately</w>
ac a</w>
Wol l
N as
Ka poor</w>
D ic
Corn wall</w>
Be th
wil dlife</w>
shar ply</w>
rail ways</w>
ob serving</w>
is sa</w>
g ill</w>
deb ated</w>
K ids</w>
Gre ene</w>
Cast ing</w>
trium ph</w>
simil arity</w>
m ating</w>
form ats</w>
concent rations</w>
b ats</w>
al ert</w>
Thir ty</w>
Sta tis
Per sians</w>
Jo se</w>
B oul
Approxim ately</w>
w ears</w>
t ope</w>
ri um</w>
make up</w>
dre ssing</w>
as sured</w>
Palest inian</w>
Cu be</w>
Car te</w>
And ré</w>
vo y</w>
ten ham</w>
ov al</w>
emplo y</w>
dreadn ought</w>
Sey mour</w>
Gu sta
ten ing</w>
sen ator</w>
refl ection</w>
mechan isms</w>
kilomet re</w>
en age</w>
en abling</w>
diff ers</w>
b ric
advertis ements</w>
y m</w>
un preced
spea ks</w>
ri ot</w>
ref using</w>
re au
nomin ee</w>
in tru
curren ts</w>
S cal
Ric h</w>
Dec lar
fun dra
fre ed</w>
f antastic</w>
clim bed</w>
c ally</w>
ant agonist</w>
Su cc
Person a</w>
M id</w>
Hoff man</w>
Gw en</w>
C it
tri angle</w>
repor ters</w>
listen ers</w>
auth ored</w>
ali gned</w>
ad ditions</w>
I mag
Cri sis</w>
Compl ete</w>
B rec
to on</w>
ov es</w>
in er
flu or
Pan thers</w>
18 41</w>
sit com</w>
resemb lance</w>
prac ticed</w>
explic it</w>
Krish na</w>
Dex ter</w>
utili zed</w>
stri ps</w>
sp rin
purcha sing</w>
ha gen</w>
be es</w>
b ors</w>
W en
Vic tory</w>
K le
C I
Bet ter</w>
Bar n
Al bion</w>
where by</w>
met aph
lun ch</w>
lan dow
fac ial</w>
em ia</w>
am id</w>
Won der</w>
Vi king</w>
Some times</w>
Jack ie</w>
J ak
Ho kies</w>
south ward</w>
shi fts</w>
pul ling</w>
promin ently</w>
out fit</w>
ni pe
hi r</w>
elim ination</w>
come dian</w>
W ake</w>
Techn ical</w>
L M</w>
Co alition</w>
Bel grade</w>
stres sed</w>
spir its</w>
o ath</w>
kni fe</w>
hec tares</w>
f ly
every day</w>
den burg</w>
can on</w>
Su gar</w>
Sin atra</w>
Oak land</w>
Num erous</w>
Man n</w>
I .
A j
18 44</w>
do zens</w>
as sic</w>
and ers</w>
ad ul
Winst on</w>
Byz ant
z able</w>
teen ager</w>
c ken</w>
an ed</w>
L ey
Hem ingway</w>
Fi re
Bel ar
Att ack</w>
z inc</w>
unpreced ented</w>
tu ber
tr am
pin ned</w>
mor ality</w>
ha e</w>
guarante ed</w>
ed o</w>
do l</w>
com posing</w>
ESP N</w>
Di xon</w>
trou bled</w>
ste als</w>
musc les</w>
lun d</w>
im i</w>
cur ric
Vene zu
Stu dents</w>
Sh ore</w>
stat ues</w>
predic table</w>
inter im</w>
ho tels</w>
ho li
ell an</w>
eccle sias
de e</w>
b bing</w>
ancest ry</w>
R ef
Pri son</w>
Mar cel
An dri
uni forms</w>
ul ates</w>
ty re</w>
su es</w>
po sting</w>
ec ology</w>
devast ated</w>
ali en
H am</w>
tran sports</w>
th ick
ship yard</w>
s occer</w>
patron age</w>
lec tures</w>
expe ditions</w>
electr ons</w>
c ation</w>
ba g</w>
associ ates</w>
ac es</w>
Har ding</w>
Be at</w>
re formed</w>
pione er</w>
dead line</w>
bil led</w>
anc ement</w>
ali ke</w>
S inc
G B</w>
Daw son</w>
the l</w>
join tly</w>
ex changed</w>
bo iler</w>
bo dy
accep ts</w>
I I
G ould</w>
Co ach</w>
vi sibility</w>
sp reading</w>
mer c
may be</w>
inc um
et or
del eted</w>
d runk</w>
comp ul
cir culated</w>
ad her
Sy stems</w>
St ro
Lea f</w>
Con n
Cam pus</w>
t cy</w>
ron d
resi st</w>
moti f</w>
lean or</w>
la v
k ney</w>
in sect</w>
e ont
bet a</w>
Ma ha
E leanor</w>
17 76</w>
summon ed</w>
rec overing</w>
cre w
counter part</w>
construc ting</w>
cha os</w>
at ories</w>
Wis den</w>
V ill
Pra desh</w>
18 36</w>
super vision</w>
re opened</w>
over night</w>
ho sting</w>
har a</w>
el ementary</w>
cli max</w>
broad ly</w>
Cla ude</w>
un rest</w>
str on
some time</w>
sha m</w>
pla ins</w>
la b</w>
infer ior</w>
im an</w>
comb ining</w>
anch ored</w>
Th ri
Sla v
Ang li
sc al
quar tered</w>
po ets</w>
ov o</w>
k el</w>
ist ure</w>
ge ographical</w>
de ity</w>
co g
ch lor
am as
Won der
Ber gen</w>
Bar ton</w>
Ad vis
we stbound</w>
tren ches</w>
sp ore</w>
sa x
pro se</w>
la sh</w>
compla int</w>
ble don</w>
V ery</w>
Lo y
Gu am</w>
Am bro
sugges tions</w>
rep ly</w>
issu ing</w>
inv a
h p</w>
gas oline</w>
g ly
d é
cra zy</w>
a h
Mau ri
Byzant ines</w>
Au to</w>
Ar cher</w>
vi d</w>
ru sh
loc als</w>
de en</w>
constitu ency</w>
consoli dated</w>
boar ded</w>
Wor king</w>
Ara bia</w>
Anim al</w>
sta ke</w>
ren der</w>
min ers</w>
mil l
exclu ding</w>
Tran sit</w>
terror ist</w>
re ty</w>
re late</w>
mi um</w>
du g</w>
by ter
Ha iti</w>
Don nell</w>
Bro ok</w>
B ang</w>
st ock
inf l
hum our</w>
eau x</w>
counter parts</w>
con e</w>
Po lic
P ain
Met al
J ov
Feder er</w>
C T
Antil les</w>
An y</w>
Ama zing</w>
imp acted</w>
fas cin
esc ence</w>
bel ly</w>
Olym pi
Itali ans</w>
Communic ations</w>
Co ch
Ara bs</w>
tur ally</w>
sket ches</w>
hu b</w>
duc k</w>
del ic
defic it</w>
back grounds</w>
S ed
L ook</w>
Cher ry</w>
A gre
s ounding</w>
ran o</w>
mo b</w>
congre ssional</w>
bloc king</w>
associ ations</w>
Wim bledon</w>
Sh ank
Pri metime</w>
O r</w>
M echan
K au
18 37</w>
ur ging</w>
trac es</w>
ou tw
melo dies</w>
el ong
conc eal
coll ector</w>
cer eb
ac eae</w>
Par t
Le ft</w>
z u</w>
sum es</w>
over lap</w>
c age</w>
Tel ugu</w>
Jo ey</w>
Herz eg
Beli eve</w>
pri de</w>
lun ar</w>
in scriptions</w>
im men
ge omet
bu la</w>
b apti
Retur ning</w>
M ine</w>
Chi efs</w>
sym path
iso tope</w>
fun gi</w>
ear y</w>
di gn
cre ators</w>
cor onation</w>
but ton</w>
al er
ab ase</w>
Sha wn</w>
Cec il</w>
r in</w>
e ful</w>
dra g</w>
doub ts</w>
cross over</w>
com eback</w>
agre b</w>
Z agreb</w>
W ey
N au
Ki el</w>
Hor ror</w>
super natural</w>
sculp tures</w>
mater nal</w>
jun gle</w>
en vi
Web ster</w>
Val entine</w>
T ank</w>
ut ter</w>
regi stration</w>
op y</w>
har dly</w>
forec ast
exp ired</w>
disc overing</w>
com pose</w>
c ence</w>
broad casts</w>
ali e</w>
M all</w>
J or
presti gious</w>
p si
occup ying</w>
m outh
har m
far ther</w>
N Y
M ale</w>
D rum
1 22</w>
mountain ous</w>
mat ching</w>
inter n
in forms</w>
in direct</w>
gg s</w>
el lip
P é
P us
M ind</w>
E S</w>
Cong o</w>
B ac
vac ant</w>
tr al</w>
renov ation</w>
on dri
k age</w>
dev il</w>
con sec
campaig ned</w>
W u</w>
T rev
T il
Lei p
D a</w>
war rant</w>
uni fied</w>
surv eys</w>
store y</w>
resemb ling</w>
re actor</w>
memb rane</w>
h ous
ea stbound</w>
divi de</w>
dim ir</w>
Fa ith</w>
Cor ner</w>
Bi ography</w>
Ad olf</w>
A val
u ri
recru it</w>
legen dary</w>
inten dent</w>
g ood
ener ge
c ents</w>
UC N</w>
Liv ing
I UCN</w>
Guatem ala</w>
E ri
E R</w>
p rone</w>
fa ti
e o
cor ro
c u</w>
assi um</w>
a sis</w>
Ro sa</w>
Ath letics</w>
rec alls</w>
re mixes</w>
re acted</w>
r yp
man ship</w>
lec ture</w>
label s</w>
fore ver</w>
downlo adable</w>
am al
Trin id
R ise</w>
O L</w>
Dor othy</w>
Car roll</w>
stri ke
ste aling</w>
sk ins</w>
ri gi
re fin
plan etary</w>
flexi ble</w>
fac tories</w>
es h
erup ted</w>
confron ts</w>
che v</w>
cal cium</w>
c av
ar ta</w>
Sh re
Sand y</w>
Mi y
Eu rop
B ronze</w>
st ence</w>
sper ity</w>
see ks</w>
ro lls</w>
recru iting</w>
integr al</w>
h alls</w>
gas es</w>
fus el
ea ke</w>
differ ently</w>
correc tly</w>
as suming</w>
ap eake</w>
Pit t</w>
I ran
Cros by</w>
C lan
18 39</w>
13 8</w>
uni ons</w>
star board</w>
si bly</w>
organiz ing</w>
no bles</w>
lo ans</w>
ic als</w>
disc over
d well</w>
conc eption</w>
al ine</w>
advis ory</w>
Mc Laren</w>
Man a</w>
J u</w>
Greg or</w>
Gi ve</w>
Archit ecture</w>
x y</w>
un stable</w>
tra gedy</w>
pa st
lem en</w>
fram ework</w>
fla v
f ain
er b
en vel
ach i</w>
Tol kien</w>
13 2</w>
wh ites</w>
ri g
ment or</w>
inj a</w>
emb ry
brea thing</w>
aci ous</w>
Wal k</w>
Sy rac
Slo ven
Sher iff</w>
Review ers</w>
Gl aci
Andre a</w>
An t
ren s</w>
rec all</w>
pi pel
pap al</w>
ist ers</w>
hei ghts</w>
en za</w>
commit tees</w>
bombar ded</w>
au gh</w>
Spea ker</w>
Hy de</w>
F on
F ight</w>
El der</w>
De ut
é n</w>
stri ker</w>
impl ement</w>
i ously</w>
ha iled</w>
deb ts</w>
ch s</w>
c ure</w>
balla ds</w>
T win</w>
St oke</w>
Legis lative</w>
Emin em</w>
Di ane</w>
Air ways</w>
ro cky</w>
re ta
mo bility</w>
hi bition</w>
fir mly</w>
deliver ing</w>
consol es</w>
cli ent</w>
ar re</w>
S now
N one</w>
Guerr ero</w>
y zom
val ence</w>
ur u</w>
transm itted</w>
ti ps</w>
s ory</w>
resu me</w>
et ly</w>
emis sions</w>
divi sional</w>
cir cul
b und
as es</w>
Sp in</w>
Soci alist</w>
Kh rush
Expres sway</w>
Au burn</w>
on i</w>
W emb
Voy ager</w>
V et
ur ai</w>
stran ded</w>
promp tly</w>
neutr on</w>
min eral</w>
hun ter</w>
dec oration</w>
alum ni</w>
L ay
K ill</w>
G h
A er
y c
ul u</w>
u lus</w>
od ds</w>
ob taining</w>
em bassy</w>
bin ary</w>
Plan ning</w>
O la
O cc
L av
Kann ada</w>
Co st
w is
tion ers</w>
shoul ders</w>
ro lled</w>
rit uals</w>
pres sures</w>
pp y</w>
mush rooms</w>
mor tal</w>
hypo the
g ale</w>
es tic</w>
char ging</w>
bar rel</w>
ass er</w>
Syrac use</w>
vin yl</w>
un necessary</w>
qu antum</w>
py ramid</w>
pla que</w>
hand ful</w>
danc er</w>
consul tant</w>
X II</w>
Tra in</w>
Mar ri
L ou</w>
H ey</w>
Ga elic</w>
v ap
sm oo
sha pes</w>
resid ences</w>
re ef</w>
pe destri
ey ew
depic tions</w>
Wor lds</w>
Wemb ley</w>
V eter
Sinc lair</w>
Ma tilda</w>
Khrush chev</w>
Herzeg ovina</w>
Fi f
B and
wh er
thir teenth</w>
struc tured</w>
lat eral</w>
ch man</w>
F ine</w>
Ches apeake</w>
survi ves</w>
n ar</w>
mon soon</w>
melo dic</w>
l eman</w>
k man</w>
it ance</w>
ho ly</w>
end emic</w>
c rick
b en</w>
am oto</w>
Vis ual</w>
S AS</w>
Mid way</w>
H ed
Con rad</w>
Arti sts</w>
king doms</w>
gra vel</w>
fusel age</w>
disper sed</w>
Thur sday</w>
Res ol
Represent ative</w>
Pal m</w>
B ati
wh enever</w>
tal ented</w>
syn ony
merchan dise</w>
li ties</w>
intensi fication</w>
h man</w>
explo ded</w>
devast ating</w>
bl end</w>
ag ne</w>
Wy oming</w>
South west</w>
Sar a</w>
Haw k</w>
Eff ects</w>
E D</w>
Cro m
Brit tany</w>
18 35</w>
ñ a</w>
y s
subordin ate</w>
sovere ign</w>
govern mental</w>
dynam ics</w>
depos ited</w>
cultiv ated</w>
compan ions</w>
col or
a ja</w>
a g</w>
To y
P itch
D H</w>
Classi cal</w>
Black burn</w>
B S
rit es</w>
persist ent</w>
ob ses
moder n
is ure</w>
ing ness</w>
i ors</w>
ha s
edit ors</w>
Y ard</w>
Six th</w>
in us</w>
emo tionally</w>
di tionary</w>
besieg ed</w>
Ses ame</w>
P P
M off
M ing</w>
Fi ghting</w>
m am
interc ept</w>
hum orous</w>
ham pered</w>
fit ness</w>
et ers</w>
det ection</w>
d atory</w>
cy cles</w>
ch t</w>
ab bey</w>
V on</w>
Sh annon</w>
J ay
G ent
D r</w>
Christ ina</w>
A bo
tic ity</w>
hyp hae</w>
h el</w>
e al</w>
curric ulum</w>
conting ent</w>
bul k
bor ing</w>
a dise</w>
Pet ro
Li u</w>
K re
I ron
Ar k</w>
4 60</w>
un conscious</w>
to b
reserv oir</w>
provo ked</w>
hi c</w>
fer tili
coinci ded</w>
cl ever</w>
Ver non</w>
Ottom ans</w>
Leip zig</w>
Gaz ette</w>
B eth</w>
v ampire</w>
sp rint</w>
refer enced</w>
l ou
ham mer</w>
determin ing</w>
concurren cy</w>
celeb rities</w>
bed ded</w>
battlecru iser</w>
as aki</w>
Wan derers</w>
Tw el
Squ ad</w>
Nik ol
Mon te
Lau ren</w>
J MA</w>
F lu
re pul
perio dic</w>
mem oirs</w>
it ude</w>
enti rety</w>
diff ered</w>
conven ed</w>
comp elling</w>
chi m
bankrup tcy</w>
S aff
Mag gie</w>
Lyn n</w>
Kru sty</w>
Cru sad
Blo om
An to
tob acco</w>
quad ru
pun t</w>
psy cho
man ual</w>
lo o</w>
in as</w>
guil t</w>
goal tender</w>
enz ymes</w>
Zim bab
Rand olph</w>
R B
Leop old</w>
Fran ces</w>
Ced ar</w>
C are</w>
A ero
pred ator</w>
label led</w>
half way</w>
dismis sal</w>
cru shed</w>
chro mo
ad ol
Wat ts</w>
Tow ards</w>
Struc ture</w>
R ain</w>
Go spel</w>
Ful ler</w>
Fer ry</w>
A R</w>
30 5</w>
179 9</w>
vest on</w>
expl oring</w>
consu mer</w>
con front</w>
c ry</w>
amphi bious</w>
N ed</w>
M á
Hutch inson</w>
Gal veston</w>
Be de</w>
A chiev
ti ll</w>
p amph
op tical</w>
gam bling</w>
advant ages</w>
Sty les</w>
Hor n
Declar ation</w>
Cong res
C ay
C at</w>
Bo hem
18 38</w>
weigh ing</w>
pro longed</w>
met allic</w>
mel ting</w>
loo sely</w>
la sts</w>
de pres
cla ss
author ised</w>
ank le</w>
Tasman ia</w>
Shang hai</w>
Provi dence</w>
Feli x</w>
sub mission</w>
profes sion</w>
p its</w>
ma st</w>
kl ore</w>
iz es</w>
ep il
elec tri
eb ook</w>
d itch</w>
d ams</w>
Warri or</w>
N WA</w>
Hein rich</w>
Far lane</w>
C ass
t te</w>
sh rine</w>
sati re</w>
om ic</w>
ne e</w>
Sas kat
S ounds</w>
Ro th
RP G</w>
Phan tom</w>
Hi pper</w>
Hei ghts</w>
He id
Dy nam
Clark son</w>
trem end
ren dering</w>
prot ested</w>
pro pulsion</w>
om er
maneu ver</w>
j ar
fur niture</w>
fru its</w>
erup tions</w>
discus ses</w>
cant ata</w>
c ease</w>
au xiliary</w>
aqu atic</w>
Re sid
Ne al</w>
I dol</w>
Angli can</w>
w olf</w>
un beaten</w>
ter son</w>
long time</w>
inspec tion</w>
inser ted</w>
incum bent</w>
identi fying</w>
i on
du p
dor f</w>
dg ers</w>
bi tions</w>
b ite</w>
Tw ilight</w>
T racks</w>
S eth</w>
P aper</w>
Ex eter</w>
Bas s</w>
super nov
s sels</w>
plu g</w>
lux ury</w>
fl att
bloo d
R BI</w>
L .
J in</w>
Bay ern</w>
Bah rain</w>
20 5</w>
18 29</w>
wra pped</w>
wa ited</w>
tic o</w>
ris ks</w>
obstac les</w>
intim id
echo ed</w>
chi cken</w>
Sh u
Rail ways</w>
Pil ot</w>
M GM</w>
Con si
sol itary</w>
sh ru
jack et</w>
deteri or
d enti
an ten
S layer</w>
Pitch fork</w>
No te</w>
Em press</w>
C ry</w>
sur faced</w>
st alled</w>
sp ra
retre ating</w>
recru its</w>
ran kings</w>
exc eptions</w>
el ect</w>
cryst als</w>
at ers</w>
Pea k</w>
Co ast
Charac ters</w>
August ine</w>
186 0s</w>
war ding</w>
t ently</w>
sin k</w>
ou ghly</w>
inter act</w>
Web b</w>
V ed
Ric an</w>
G S</w>
E la
Davi dson</w>
Anim als</w>
super hero</w>
sent ences</w>
sci ences</w>
sc or
po etic</w>
it ally</w>
fo g</w>
d ge
bar n</w>
Tro y</w>
Some thing</w>
R az
O f
M CC</w>
L ec
C all</w>
AT P</w>
unk en</w>
toler ance</w>
releg ation</w>
opo ly</w>
m oul
incar nation</w>
i Phone</w>
exc eeding</w>
ch us</w>
b as</w>
arti facts</w>
River a</w>
R ee
Pro gram
Par liamentary</w>
Ex change</w>
Boo ker</w>
stric ken</w>
ston ecraft</w>
shor ts</w>
re sted</w>
rat ory</w>
our ing</w>
hero ic</w>
echo slo
bour g</w>
Woll stonecraft</w>
Lam b</w>
H its</w>
Cz echoslo
Car son</w>
sop hom
precur sor</w>
cog ni
bet h</w>
admir al</w>
Ukra ine</w>
Trev or</w>
Pla ins</w>
Moren o</w>
Loo king</w>
Jes u
Ge ography</w>
C ant
187 0s</w>
so lic
lit ter</w>
liber ty</w>
inten sive</w>
inf lation</w>
eli us</w>
disclo sed</w>
conv ey</w>
am us</w>
Gl ory</w>
1 18</w>
vis itor</w>
stand ings</w>
rep lica</w>
rel ates</w>
obj ections</w>
minist ry</w>
lik ewise</w>
c ran
attrac ting</w>
Vish nu</w>
Sil ent</w>
L ess</w>
K O</w>
7 0s</w>
ä n
rum ours</w>
re production</w>
programm es</w>
otyp e</w>
multi p
la titude</w>
fl ouri
exam ine</w>
ensu ed</w>
el ic
downlo ads</w>
d wel
coun sel</w>
appe aling</w>
P ut
Naz is</w>
G ore</w>
18 42</w>
18 31</w>
val leys</w>
un employment</w>
spectac ular</w>
re productive</w>
re constructed</w>
ou x</w>
open hagen</w>
mer cen
mar ching</w>
gradu al</w>
continu ally</w>
L ang</w>
Americ as</w>
och ondri
far mer</w>
experi encing</w>
Sh an
S li
Cham bers</w>
B rett</w>
sequ els</w>
recre ation</w>
ques tioning</w>
mag i
happ ening</w>
gun fire</w>
el u
deb ates</w>
coordin ated</w>
affir med</w>
acc ent</w>
Y ok
Vi j
Sl ant</w>
La dies</w>
L ead</w>
Ex peri
Dev ils</w>
Bat tery</w>
umber ing</w>
u tility</w>
span ning</w>
mark eted</w>
m all</w>
in sti
excav ated</w>
exc it
clam ation</w>
bel ongs</w>
am ous</w>
Under taker</w>
S pot
L ü
C openhagen</w>
Andre ws</w>
warri or</w>
vi est</w>
ten ding</w>
su ite</w>
mo isture</w>
jus tified</w>
in scribed</w>
gr un
co des</w>
Wednes day</w>
S anti
Radi o
North umberland</w>
I da
Appe als</w>
villa ins</w>
tac eous</w>
l oride</w>
it ative</w>
inc ap
i as</w>
expec tedly</w>
bar k</w>
Pres byter
B f</w>
st wards</w>
ographi es</w>
lan der</w>
harmon y</w>
gran ting</w>
fro zen</w>
esch w
bran ded</w>
W as</w>
Ru dol
Gal la
Gal axy</w>
Dre ams</w>
Bom bay</w>
temper ate</w>
sur prising</w>
s ore</w>
over la
ov ed</w>
in formal</w>
dis appointing</w>
den y</w>
ar ches</w>
Sal ford</w>
1⁄ 2</w>
18 43</w>
tot als</w>
spl its</w>
serv ic
ill ance</w>
c aves</w>
an as</w>
amid ships</w>
Stre ets</w>
Spi ke</w>
S ei
S T
O g
Good man</w>
180 1</w>
tri dge</w>
t et
mo thers</w>
bur den</w>
bow lers</w>
bec k</w>
ad el</w>
acad emy</w>
Z ep
Yu cat
Th re
Sk i
Metal lica</w>
thor oughly</w>
sho es</w>
pl in</w>
op pose</w>
onom ous</w>
om or
ol i</w>
ic ks</w>
i v
crow ded</w>
continu ity</w>
broad side</w>
a unt</w>
Mon thly</w>
H P</w>
sp iders</w>
ren umbering</w>
re union</w>
pp e</w>
pla za</w>
n all</w>
ens uring</w>
e ber</w>
deri ves</w>
ak in</w>
ad or
Ber g
18 15</w>
wal d</w>
w au
sna ke</w>
re inst
go d
emer gence</w>
de pri
counter attack</w>
appreci ation</w>
S B</w>
H z</w>
H ay</w>
Cl an</w>
4 10</w>
son ville</w>
manufac turers</w>
lim iting</w>
ide ology</w>
end ea
du ll</w>
down stream</w>
de ities</w>
appoin tments</w>
H itch
Cre taceous</w>
AI F</w>
A bor
un related</w>
u tion
turn pike</w>
t ful</w>
superv ised</w>
re match</w>
pseu don
prot esters</w>
out flow</w>
ni er</w>
light ning</w>
ir rit
imp acts</w>
hea viest</w>
eng ag
cens orship</w>
advis ories</w>
S ales</w>
Fla g</w>
Chall enge</w>
u l</w>
suspici on</w>
ra tion
pro sperity</w>
mist akes</w>
ho e</w>
fail ures</w>
Ida ho</w>
Agre ement</w>
Ab du
13 7</w>
stab li
ren ted</w>
reig ning</w>
po ison</w>
inst antly</w>
in timate</w>
identi fies</w>
grav itational</w>
cu is
court yard</w>
R ey</w>
P aw
G li
Expe dition</w>
oun ce</w>
in ae</w>
h ed
co inage</w>
Win nipe
Perf ect</w>
P au
L ines</w>
Isab ella</w>
B le
30 th</w>
ph arm
passion ate</w>
na ve</w>
lac ial</w>
ic z</w>
escor ting</w>
bu reau
Georg etown</w>
Car r</w>
1 19</w>
un common</w>
ul f
resour ce</w>
om itted</w>
disc arded</w>
din osaur</w>
concurren tly</w>
co ined</w>
chron ic</w>
chore ography</w>
Se j
Off ensive</w>
Observ atory</w>
Midd leton</w>
Gir o</w>
Econom y</w>
4 80</w>
un willing</w>
teach ings</w>
swee p</w>
stat e
sc out</w>
ogra phers</w>
enjoy able</w>
arch s</w>
Ta ft</w>
Jour ney</w>
H imm
war ming</w>
tal lest</w>
stron gh
ra iding</w>
pre fer</w>
p id</w>
over looking</w>
ome o</w>
fro g</w>
fortun es</w>
abor tion</w>
West on</w>
Trinid ad</w>
Sy lv
Rel ations</w>
Juli us</w>
Juli et</w>
Dart mouth</w>
Comp lex</w>
Ca ve</w>
ó w</w>
will ingness</w>
retri eve</w>
rej ection</w>
ni th
mission aries</w>
hosti lities</w>
ep onymous</w>
ea ger</w>
bur nt</w>
S avo
Rem ix</w>
Polic y</w>
K os
Cat al
C age</w>
A gn
z el</w>
merc ury</w>
intersec ting</w>
fir ms</w>
d rical</w>
c el</w>
War ning</w>
Vla dimir</w>
Or d
LG BT</w>
Ch al
Ac ross</w>
wea ker</w>
supervis or</w>
gran ite</w>
constel lation</w>
blo g</w>
at tering</w>
air play</w>
Nic ole</w>
Fin an
180 9</w>
te amed</w>
sc ut
ram ps</w>
pro sp
out skirts</w>
or nam
ici ous</w>
care ful</w>
ast e</w>
ang o</w>
Ri de</w>
Re ds</w>
Lev ine</w>
F ren
D r
Commer ce</w>
stra ined</w>
sh rin
p lot
di ent</w>
critici zing</w>
cinem atic</w>
adap t</w>
No el</w>
Mc Co
Ib n</w>
He at</w>
Cra ft</w>
we igh</w>
num bering</w>
n ance</w>
mark ings</w>
lik ened</w>
jum ped</w>
inc en
er i</w>
ec ological</w>
appe als</w>
T rent</w>
Prepar ations</w>
Mu st</w>
E sp
C lose</w>
Ba ja</w>
179 4</w>
s age</w>
in die</w>
h Pa</w>
foo ds</w>
finan ced</w>
cli ps</w>
ch loride</w>
Sev enth</w>
In c.</w>
D id
superi ority</w>
men u</w>
manu el</w>
k id</w>
cylin drical</w>
colli ded</w>
bu si
al pha</w>
abstr act</w>
T .
Lea fs</w>
Gal li
Fac tory</w>
Divi sions</w>
vi able</w>
ve in</w>
strateg ies</w>
re fur
per secution</w>
oo t</w>
hol low</w>
gla des</w>
dreadn oughts</w>
ca ke</w>
bot tle</w>
alle gi
Winnipe g</w>
Th ing</w>
Rad ar</w>
Plat inum</w>
Mo tor</w>
Matthe ws</w>
Her oes</w>
Cov enant</w>
Comb ined</w>
swi m</w>
resi sted</w>
occur rence</w>
mar ck</w>
jo k
in form</w>
destruc tive</w>
S anc
R OK</w>
N es
K eys</w>
Day ton</w>
Cair o</w>
up stream</w>
tow ed</w>
to y</w>
resemb led</w>
repeti tive</w>
me al</w>
lit es</w>
evi ć</w>
emp his</w>
cock pit</w>
as ed</w>
Que ens</w>
Par ish</w>
M emphis</w>
Flo od</w>
Christ ine</w>
Alter native</w>
Alexand ra</w>
Adv anced</w>
2 9th</w>
179 8</w>
wrec ked</w>
uni vers
theat res</w>
ten ants</w>
t ch</w>
sur geon</w>
pla sma</w>
novel ist</w>
in door</w>
im minent</w>
engag ements</w>
eleph ant</w>
ec a</w>
Mon ten
Mick ey</w>
G é
G A</w>
C M
Ag ent</w>
5 0
1 28</w>
ver dict</w>
th ia</w>
sh ri
o ch</w>
integr ity</w>
fis cal</w>
audi tioned</w>
acc ession</w>
S ons</w>
Par agu
F ish
Agricul ture</w>
interpre tations</w>
bar ometric</w>
b iz
ac comp
Stan ton</w>
German ic</w>
Fi elds</w>
Bre w
t ford</w>
sti dia</w>
intensi fy</w>
back drop</w>
astr onau
answ ers</w>
Pak ist
Illu strated</w>
Hass ett</w>
Cla rence</w>
Bro ken</w>
Bar ack</w>
wal lis</w>
th ian</w>
sion ist</w>
s mart</w>
re build</w>
mem orials</w>
ho g</w>
h rer</w>
gre eted</w>
facil itate</w>
en force</w>
ed ers</w>
dis solution</w>
che er
bre t
b outs</w>
at titudes</w>
Wor kers</w>
T estament</w>
Mari ah</w>
Loc ke</w>
Lak ers</w>
Franç ois</w>
Corn wallis</w>
tic les</w>
spir al</w>
pian ist</w>
nific ent</w>
in effective</w>
id ge</w>
hard t</w>
arch bishop</w>
ambu sh</w>
S mart</w>
Rand all</w>
Ch an</w>
pri singly</w>
pot assium</w>
oc olate</w>
kidn apped</w>
chea p</w>
ad ers</w>
R it
Off ici
Gib bs</w>
Europe ans</w>
yi elded</w>
to sh</w>
sl ender</w>
pu zzle</w>
par d</w>
o ked</w>
dig itally</w>
di shes</w>
an ol</w>
S cha
N om
In spec
Gam ing</w>
Bis marck</w>
w ol
t rench</w>
spi der</w>
shadow ed</w>
pre valent</w>
person alities</w>
j ah</w>
forbid den</w>
con s</w>
b aller</w>
air d</w>
Ro tten</w>
Re bec
Mor tal</w>
Monten eg
L ance</w>
H o</w>
Bec k
A ur
8 50</w>
up date</w>
ti ers</w>
techn ically</w>
some where</w>
sex es</w>
satis fying</w>
pea sants</w>
m son</w>
k om
illu min
f oul</w>
anth ology</w>
Sac ram
S O
Ro w</w>
Cas ino</w>
Bati sta</w>
viol ated</w>
un covered</w>
sev enty</w>
mu seums</w>
innov ation</w>
expres ses</w>
Smi th
Rock ets</w>
Langu age</w>
Bi o
truste es</w>
gover nors</w>
en ko</w>
disa strous</w>
at um</w>
Ver mont</w>
Sw an</w>
Fil m
Car l
wau kee</w>
st ain
sh in</w>
refur b
probl ematic</w>
no body</w>
n ingham</w>
lu ck</w>
fru stration</w>
fair y</w>
ex iled</w>
du ke</w>
domin ate</w>
cor al</w>
ch ords</w>
Reb el
Mo on
Hep burn</w>
H ew
Emer gency</w>
20 6</w>
v acu
ur ine</w>
trunk line</w>
to ire</w>
our se</w>
oli a</w>
is y</w>
interc eption</w>
ci ary</w>
camoufla ge</w>
T H
I N
Alban ia</w>
A von</w>
18 19</w>
web sites</w>
t ingham</w>
possi bilities</w>
oxid ation</w>
mini ature</w>
cool ing</w>
ch ol
bene ficial</w>
asser ts</w>
affili ate</w>
Wal sh</w>
Ver de</w>
Re ich
O no</w>
Nev ille</w>
I P</w>
Europ a</w>
El vis</w>
E 3</w>
Bry ant</w>
Am ster
under going</w>
un expectedly</w>
treas ure</w>
spokes man</w>
milli meters</w>
gun nery</w>
es tial</w>
con di
compli cations</w>
cal cul
al ore</w>
aff ects</w>
Revi val</w>
Or kney</w>
Lan ding</w>
Hou se
F rit
18 14</w>
vit am
vis ually</w>
post season</w>
ex otic</w>
defend ant</w>
Mc Le
Fac ebook</w>
Con stitu
Bon o</w>
un finished</w>
shi fting</w>
princ ess</w>
es sions</w>
enh ance</w>
dispos al</w>
consul ted</w>
aut onomy</w>
M ad</w>
Er in</w>
Cin ema</w>
Can di
Bar ker</w>
y o</w>
v ity</w>
so dium</w>
ou n</w>
om ena</w>
o i</w>
kid ney</w>
in su
gr ounded</w>
fun nel</w>
fle eing</w>
envi sioned</w>
em an
dic ate</w>
den ounced</w>
cli ents</w>
cer tification</w>
ast ed</w>
Lu ther</w>
Gro ves</w>
C ar</w>
Aber deen</w>
18 20</w>
ric a</w>
pl un
pi pes</w>
la e</w>
e der</w>
commission er</w>
ax ies</w>
Shir ley</w>
Old ham</w>
Man it
D F</w>
Chem ical</w>
B lock</w>
179 3</w>
whe at</w>
under way</w>
p y</w>
fri gh
exp ecting</w>
er nal</w>
ecclesias tical</w>
consp ic
Thom son</w>
St ur
Sour ce</w>
Re gular</w>
N un
Li k
Gold man</w>
Ever glades</w>
Amster dam</w>
wil d
virtu e</w>
trans form</w>
tex ture</w>
psyched elic</w>
mp ed</w>
int est
culmin ating</w>
b anner</w>
Th or</w>
Ta unton</w>
Ra o</w>
Mic k</w>
J o</w>
Ein stein</w>
t reason</w>
suspec ts</w>
pl en
oph one</w>
est u
de pressed</w>
contribu tor</w>
col legiate</w>
char itable</w>
carto ons</w>
bi ke</w>
Scou ts</w>
I OC</w>
Far mer</w>
Con versely</w>
ther land</w>
tar ies</w>
synthe tic</w>
li bret
iz ations</w>
hun ters</w>
explo sives</w>
ean ic</w>
e j
b are</w>
acqu iring</w>
X en
Wil d
O kin
O C
Nig el</w>
M ec
K any
E cc
Bar ber</w>
si ghted</w>
ju ana</w>
j ord</w>
feder ation</w>
cent red</w>
attrac tions</w>
Voc al</w>
Rest oration</w>
P O
N er
Cardin al</w>
Car tman</w>
v ana</w>
targ eting</w>
ound ings</w>
om i</w>
obsc ure</w>
mo th</w>
k ir
est e</w>
dea dly</w>
c ites</w>
ac et
Vol t</w>
US AF</w>
Shi p</w>
Sch ul
Produc er</w>
Mad ras</w>
Gra du
Every thing</w>
El sewhere</w>
Broad cast</w>
B am
ta ils</w>
sol u
rec k
ha d
Ro dgers</w>
Fitz ger
F low</w>
Cun ningham</w>
Col ony</w>
Bos nian</w>
u sion</w>
st aging</w>
ne ur
m its</w>
flu ctu
fl am
energe tic</w>
di al</w>
deliber ate</w>
bul ance</w>
bre vi
bla de</w>
astronom ers</w>
ap p</w>
VH S</w>
Religi on</w>
Pl ans</w>
Peg gy</w>
Mic hel</w>
Le x</w>
Gil lian</w>
3 000</w>
phra ses</w>
obsol ete</w>
mon k</w>
foun ders</w>
displa ying</w>
X i
Nap les</w>
J us
1 16</w>
w o
v ector</w>
tel ec
sta tionary</w>
spon sor</w>
na i</w>
ly ric</w>
inter changes</w>
guar ded</w>
glo b
er men</w>
d rought</w>
d og
ast rop
ang led</w>
Shep herd</w>
Moff at</w>
Leg al</w>
Hon dur
Achiev ement</w>
up grades</w>
six teenth</w>
re warded</w>
modi fication</w>
mid st</w>
ha bit</w>
ess a</w>
dis man
demon strations</w>
alg ori
Z am
Wal ton</w>
Survi vor</w>
Rebec ca</w>
Mar ion</w>
Mar co</w>
J ed
Himm ler</w>
Eur o</w>
Congre ssional</w>
Bol sh
ur us</w>
re line</w>
paras ites</w>
h ow
dis charged</w>
con science</w>
ch in</w>
aggre ssion</w>
Hen ri</w>
Gen eva</w>
6 0s</w>
the ology</w>
t we
t ari
stri es</w>
ge ous</w>
fing ers</w>
fab ric
ci vic</w>
back wards</w>
ar ise</w>
ali an</w>
ach t</w>
Sof tw
R ita</w>
Pi one
O sw
Loc ated</w>
Kra k
Humph rey</w>
E bert</w>
Brun o</w>
ym ology</w>
uph eld</w>
tr unk</w>
surr oundings</w>
ob server</w>
lo v
elimin ating</w>
constra ints</w>
bar bet
anticip ation</w>
ambi tion</w>
V ol</w>
Ta king</w>
T itan</w>
Nu clear</w>
NH C</w>
Lind say</w>
Finan cial</w>
Er nst</w>
An ni
17 75</w>
jun c
do or
defend ants</w>
correspon dent</w>
co stly</w>
chem icals</w>
ap hy
Scre en</w>
Progre ss</w>
F ear</w>
B ates</w>
w rought</w>
ti ger</w>
refu se</w>
prot agonists</w>
individu ally</w>
ho t
custom er</w>
cou ples</w>
cla s
Ju st
Gu in
t ops</w>
sol ving</w>
ques tion
g rac
colum nist</w>
are well</w>
agu a</w>
advis or</w>
Tu dor</w>
Tra v
M ales</w>
Det ective</w>
Clim ate</w>
C ock
B rest</w>
th less</w>
re sting</w>
pro pon
o live</w>
clim bs</w>
alter ations</w>
ag ogue</w>
T ed
Sti r
Sa ig
Not re</w>
Mo ses</w>
Mar se
Glaci er</w>
Bra ves</w>
Bor neo</w>
A ston</w>
179 2</w>
ri ft</w>
re fined</w>
re designed</w>
plant ation</w>
om ed</w>
o do
mean ing
g age</w>
fa una</w>
char m</w>
cent r
bi as</w>
ad ditionally</w>
Wil kinson</w>
O R</w>
Jenn y</w>
Fern ando</w>
Dick inson</w>
Cen sus</w>
Bru ssels</w>
A us
2 6th</w>
viol et</w>
tri but
tribut ary</w>
sh an</w>
rot ating</w>
progre sses</w>
out line</w>
mit ochondri
mis tice</w>
i i</w>
compet ent</w>
anim ators</w>
Oli vier</w>
Mil waukee</w>
Liter ature</w>
Gam er</w>
C T</w>
A AF</w>
show cas
ne ed
m ington</w>
la dder</w>
imp lied</w>
excav ations</w>
est on</w>
cap tains</w>
bu lar</w>
R omeo</w>
Mar x
Hon ours</w>
Ex plo
Ever ett</w>
B iz
2 35</w>
185 0s</w>
14 4</w>
v orous</w>
tou ching</w>
profession als</w>
pap er
or thodox</w>
mo ck</w>
ma iden</w>
iscop al</w>
es cent</w>
dri ed</w>
High lands</w>
H C</w>
Cha u
Ch ess</w>
C umberland</w>
20 3</w>
2 8th</w>
z as</w>
sevent eenth</w>
pp le</w>
pic ks</w>
or row</w>
i OS</w>
hun ted</w>
commission ing</w>
ag enda</w>
Wil de</w>
P ole</w>
Mag nus</w>
L one</w>
K iss</w>
B lin
Am bassador</w>
Al pine</w>
Ac ts</w>
su scep
sli p</w>
gam er</w>
cla de</w>
cer am
agu ar</w>
Santi ago</w>
Pha se</w>
F lan
un changed</w>
hon ey</w>
gal axies</w>
fe eds</w>
f on
exp end
devo tion</w>
avi er</w>
at as</w>
Ron nie</w>
P .
Medi eval</w>
J ab
Go eb
Abor ig
2 25</w>
t down</w>
op ers</w>
on ry</w>
inhi bit
el ly</w>
eigh ty</w>
defin ite</w>
comm on
cann ons</w>
W enger</w>
Resp on
Reli ef</w>
Munici pal</w>
L ed</w>
God d
viol in</w>
sophom ore</w>
s nea
po pe</w>
no ck</w>
mat rix</w>
lo id</w>
interven e</w>
homosex ual</w>
guaran tee</w>
Th eme</w>
Softw are</w>
S ong
S cor
Pop Matters</w>
Mar ty</w>
Malay sian</w>
In stru
Alban ian</w>
spec tral</w>
rehear sal</w>
lau gh
gra ves</w>
diver ted</w>
ap olog
U ru
T ell</w>
Sup port</w>
P M</w>
Mo tor
Chop ra</w>
Cas ey</w>
re development</w>
psych ology</w>
presti ge</w>
ph onic</w>
ninet een</w>
na tively</w>
lin t</w>
ig er</w>
ha bits</w>
fac to</w>
e ira</w>
dec ent</w>
crimin als</w>
archi pelago</w>
Stri ke</w>
R is
Cha plin</w>
B o</w>
3 40</w>
zi er</w>
we sterly</w>
wal led</w>
tom bs</w>
st ad
some body</w>
min ds</w>
k ö
iron clad</w>
em bedded</w>
bre lla</w>
Secon dary</w>
Reg arding</w>
Rebel lion</w>
P oc
Kno x</w>
Iran ian</w>
Fre eman</w>
E ver</w>
Alli son</w>
18 25</w>
wid ened</w>
sympa thy</w>
suppl emented</w>
suppl ement</w>
p ation</w>
m acy</w>
ll ers</w>
homosex uality</w>
gro ve</w>
cat ching</w>
bicy cle</w>
aw ak</w>
Sar awak</w>
P ayne</w>
Min aj</w>
L lan
G ill</w>
resi stant</w>
r ared</w>
def enc
ap plying</w>
Tim othy</w>
No ble</w>
My r
F ey</w>
Dav en
Beau ty</w>
Al le
Ab y
un ting</w>
ol o</w>
min erals</w>
mem or
fix ture</w>
dis agreement</w>
cor pse</w>
con grat
come dic</w>
Th under</w>
Li b
Legis lature</w>
Diff er
Continu ing</w>
proj ec
pic king</w>
ne um
l ity</w>
kin i</w>
es hip</w>
bri an</w>
authen tic</w>
Pakist ani</w>
McCo y</w>
Maj esty</w>
M ets</w>
Cambo dia</w>
ver ted</w>
sp ells</w>
on de</w>
ob viously</w>
ligh thouse</w>
ic us</w>
dis orders</w>
conve x</w>
consul ting</w>
bul let</w>
ble w</w>
air ports</w>
Res our
Rel eased</w>
Re al
Lion el</w>
L ana</w>
Ch at
B iden</w>
17 89</w>
vo ir</w>
u ter
si mu
re duces</w>
re designated</w>
municip alities</w>
iP ad</w>
h itter</w>
g ement</w>
evalu ation</w>
desc ending</w>
Whi g</w>
Ra p</w>
I rene</w>
Fow ler</w>
18 24</w>
17 95</w>
strike outs</w>
se i</w>
publi ci
op ho
nega tively</w>
is ely</w>
ha irs</w>
bel ls</w>
b ou
allegi ance</w>
Marl borough</w>
Go ing</w>
D R</w>
res or
rehabil itation</w>
n mi</w>
ff y</w>
e ans</w>
ambigu ous</w>
G em
Fitzger ald</w>
F ull</w>
si r</w>
mission ary</w>
glaci ers</w>
e de</w>
dem ise</w>
bb les</w>
agas y</w>
ad dy</w>
Rec ent</w>
Paralymp ics</w>
Mal agasy</w>
Gar rett</w>
Dor set</w>
180 4</w>
wit ch</w>
ver t</w>
ut nant</w>
tren ds</w>
ten or</w>
sur prisingly</w>
si ding</w>
pil lars</w>
phen omena</w>
op ath
obli ged</w>
let ting</w>
infil tr
en forced</w>
el in</w>
dem ons</w>
de z
bru tal</w>
ba sically</w>
ari os</w>
a is
Vi ew</w>
V as
Sum mer
Man i
D u</w>
D j
Coast al</w>
Clay ton</w>
18 10</w>
1 26</w>
zu ki</w>
y outh
oc ar
celeb rating</w>
bri um</w>
Re in
R im
H V</w>
Gan es
An alysis</w>
18 21</w>
under take</w>
so ils</w>
pupp et</w>
k s
inher itance</w>
dec ree</w>
c ea
Let ters</w>
Kom bat</w>
Hel ena</w>
techn ological</w>
surve illance</w>
proli fic</w>
invest ments</w>
favor ably</w>
employ er</w>
do o</w>
der er</w>
Town send</w>
T an</w>
Saff ir</w>
O .
M ei
K et
E sc
Colom bia</w>
18 33</w>
wh olly</w>
tw ist</w>
tremend ous</w>
tal ents</w>
su preme</w>
retro spective</w>
man datory</w>
hel met</w>
depar ting</w>
dep end</w>
compens ate</w>
clear ance</w>
casem ates</w>
Writ er</w>
Rever end</w>
Fla sh</w>
Cl ement</w>
180 6</w>
1 23</w>
ten stein</w>
statis tical</w>
ri ff</w>
reper toire</w>
re lin
relin qu
po x</w>
moti fs</w>
is er
hat ch</w>
er un
de on</w>
campaig ning</w>
bra e</w>
Wolver ines</w>
S ally</w>
Phy sical</w>
N assa
Mat ch</w>
Hung arians</w>
Can ning</w>
C rit
Buff y</w>
Acad emic</w>
1 24</w>
tru ce</w>
treat ments</w>
sur ance</w>
photogra phed</w>
ock yard</w>
hi ring</w>
h ind
e ze</w>
desi rable</w>
al ise</w>
Z ack</w>
Wil mington</w>
Tit anic</w>
Mac don
Dis c</w>
Cly de</w>
Ben son</w>
A sh</w>
tel e
religi ons</w>
pi l</w>
nu de</w>
lau gh</w>
fol klore</w>
explo res</w>
confir mation</w>
an to</w>
Sa id</w>
Gro ening</w>
Eura sian</w>
[...]
